{
  "version": "1.0",
  "truncation": null,
  "padding": null,
  "added_tokens": [
    {
      "id": 0,
      "content": "<|endoftext|>",
      "single_word": false,
      "lstrip": false,
      "rstrip": false,
      "normalized": false,
      "special": true
    }
  ],
  "normalizer": null,
  "pre_tokenizer": {
    "type": "ByteLevel",
    "add_prefix_space": false,
    "trim_offsets": true,
    "use_regex": true
  },
  "post_processor": null,
  "decoder": {
    "type": "ByteLevel",
    "add_prefix_space": true,
    "trim_offsets": true,
    "use_regex": true
  },
  "model": {
    "type": "BPE",
    "dropout": null,
    "unk_token": null,
    "continuing_subword_prefix": null,
    "end_of_word_suffix": null,
    "fuse_unk": false,
    "byte_fallback": false,
    "vocab": {
      "<|endoftext|>": 0,
      "\n": 1,
      " ": 2,
      "!": 3,
      "$": 4,
      "&": 5,
      "'": 6,
      ",": 7,
      "-": 8,
      ".": 9,
      "3": 10,
      ":": 11,
      ";": 12,
      "?": 13,
      "A": 14,
      "B": 15,
      "C": 16,
      "D": 17,
      "E": 18,
      "F": 19,
      "G": 20,
      "H": 21,
      "I": 22,
      "J": 23,
      "K": 24,
      "L": 25,
      "M": 26,
      "N": 27,
      "O": 28,
      "P": 29,
      "Q": 30,
      "R": 31,
      "S": 32,
      "T": 33,
      "U": 34,
      "V": 35,
      "W": 36,
      "X": 37,
      "Y": 38,
      "Z": 39,
      "a": 40,
      "b": 41,
      "c": 42,
      "d": 43,
      "e": 44,
      "f": 45,
      "g": 46,
      "h": 47,
      "i": 48,
      "j": 49,
      "k": 50,
      "l": 51,
      "m": 52,
      "n": 53,
      "o": 54,
      "p": 55,
      "q": 56,
      "r": 57,
      "s": 58,
      "t": 59,
      "u": 60,
      "v": 61,
      "w": 62,
      "x": 63,
      "y": 64,
      "z": 65,
      "Ċ": 66,
      "Ġ": 67,
      "Ġt": 68,
      "he": 69,
      "Ġa": 70,
      "ou": 71,
      "Ġs": 72,
      "Ġm": 73,
      "in": 74,
      "Ġw": 75,
      "re": 76,
      "ha": 77,
      "Ġthe": 78,
      "nd": 79,
      "Ġb": 80,
      "or": 81,
      "is": 82,
      "Ġf": 83,
      "er": 84,
      "ll": 85,
      "it": 86,
      "Ġo": 87,
      "Ġd": 88,
      "Ġc": 89,
      "Ġl": 90,
      "es": 91,
      "en": 92,
      "Ġn": 93,
      "ar": 94,
      "Ġth": 95,
      "Ġto": 96,
      "Ġh": 97,
      "on": 98,
      "Ġy": 99,
      "Ġp": 100,
      "hat": 101,
      "ĠI": 102,
      "Ġyou": 103,
      "Ġhe": 104,
      "ot": 105,
      "ve": 106,
      "ing": 107,
      "Ġof": 108,
      "Ġand": 109,
      "ow": 110,
      "om": 111,
      "Ġg": 112,
      "an": 113,
      "st": 114,
      "at": 115,
      "se": 116,
      "Ġbe": 117,
      "Ġmy": 118,
      "ce": 119,
      "Ġin": 120,
      "Ġha": 121,
      "le": 122,
      "ay": 123,
      "ld": 124,
      "et": 125,
      "ir": 126,
      "ed": 127,
      "ut": 128,
      "'s": 129,
      "ith": 130,
      "Ġme": 131,
      "im": 132,
      "gh": 133,
      "And": 134,
      "Ġthat": 135,
      "ch": 136,
      "our": 137,
      "Ġu": 138,
      "Ġnot": 139,
      "ke": 140,
      "Ġfor": 141,
      "Ġis": 142,
      "Ġwe": 143,
      "oo": 144,
      "Ġe": 145,
      "ill": 146,
      "Ġwith": 147,
      "ad": 148,
      "her": 149,
      "ri": 150,
      "'d": 151,
      "Ġthou": 152,
      "Ġst": 153,
      "ent": 154,
      "Ġhis": 155,
      "ord": 156,
      "ome": 157,
      "Ġit": 158,
      "ght": 159,
      "The": 160,
      "ur": 161,
      "Ġk": 162,
      "Ġyour": 163,
      "EN": 164,
      "al": 165,
      "Ġre": 166,
      "AR": 167,
      "Ġli": 168,
      "IN": 169,
      "ra": 170,
      "Ġde": 171,
      "id": 172,
      "ly": 173,
      "as": 174,
      "Ġthis": 175,
      "Ġhave": 176,
      "Ġhim": 177,
      "Ġso": 178,
      "Ġon": 179,
      "hi": 180,
      "Ġthy": 181,
      "ck": 182,
      "ore": 183,
      "Ġas": 184,
      "ood": 185,
      "US": 186,
      "ould": 187,
      "ro": 188,
      "ain": 189,
      "Ġsha": 190,
      "am": 191,
      "est": 192,
      "ver": 193,
      "ING": 194,
      "Ġno": 195,
      "ea": 196,
      "ess": 197,
      "us": 198,
      "Ġwill": 199,
      "Ġdo": 200,
      "and": 201,
      "ĠR": 202,
      "Th": 203,
      "Ġse": 204,
      "Ġbut": 205,
      "To": 206,
      "Ġlo": 207,
      "if": 208,
      "Ġour": 209,
      "ge": 210,
      "ue": 211,
      "art": 212,
      "Ġall": 213,
      "ake": 214,
      "Ġsu": 215,
      "ard": 216,
      "ĠC": 217,
      "ear": 218,
      "Ġthee": 219,
      "ER": 220,
      "han": 221,
      "KING": 222,
      "Ġfa": 223,
      "OR": 224,
      "Ġsp": 225,
      "ion": 226,
      "ĠE": 227,
      "Ġan": 228,
      "ell": 229,
      "Ġby": 230,
      "ter": 231,
      "ous": 232,
      "Ġshall": 233,
      "il": 234,
      "rom": 235,
      "Ġne": 236,
      "IC": 237,
      "ho": 238,
      "Ġare": 239,
      "ight": 240,
      "Ġv": 241,
      "That": 242,
      "ul": 243,
      "th": 244,
      "ĠM": 245,
      "ES": 246,
      "ath": 247,
      "nt": 248,
      "Ġsh": 249,
      "IUS": 250,
      "Ġlord": 251,
      "ic": 252,
      "row": 253,
      "ust": 254,
      "ast": 255,
      "Ġwhat": 256,
      "ARD": 257,
      "Ġup": 258,
      "ET": 259,
      "Ġher": 260,
      "OL": 261,
      "Ġ'": 262,
      "sel": 263,
      "Ġbl": 264,
      "ant": 265,
      "But": 266,
      "hich": 267,
      "Ġwhe": 268,
      "od": 269,
      "end": 270,
      "ec": 271,
      "ine": 272,
      "Ġkn": 273,
      "'ll": 274,
      "ry": 275,
      "Ġat": 276,
      "ol": 277,
      "one": 278,
      "are": 279,
      "Ġman": 280,
      "Ġfrom": 281,
      "UC": 282,
      "Ġpr": 283,
      "What": 284,
      "Ġthem": 285,
      "ĠG": 286,
      "Ġcon": 287,
      "Ġtheir": 288,
      "Ġgood": 289,
      "out": 290,
      "ĠH": 291,
      "Ġcom": 292,
      "Ġking": 293,
      "For": 294,
      "ble": 295,
      "ven": 296,
      "ĠL": 297,
      "ive": 298,
      "ng": 299,
      "Ġhat": 300,
      "Ġcan": 301,
      "oth": 302,
      "other": 303,
      "ĠO": 304,
      "ers": 305,
      "ep": 306,
      "Ġam": 307,
      "ond": 308,
      "em": 309,
      "Ġwas": 310,
      "Ġlove": 311,
      "Ġsw": 312,
      "Ġmore": 313,
      "Ġthey": 314,
      "Ġus": 315,
      "ind": 316,
      "Ġnow": 317,
      "ere": 318,
      "Ġthere": 319,
      "self": 320,
      "My": 321,
      "um": 322,
      "Ġar": 323,
      "ie": 324,
      "au": 325,
      "Ġwould": 326,
      "Ġtr": 327,
      "Ġsay": 328,
      "ĠB": 329,
      "Ġif": 330,
      "Ġthen": 331,
      "Ġthan": 332,
      "Ġun": 333,
      "LI": 334,
      "--": 335,
      "Ġhere": 336,
      "Ġgo": 337,
      "ĠS": 338,
      "ate": 339,
      "pp": 340,
      "AN": 341,
      "res": 342,
      "qu": 343,
      "Ġor": 344,
      "Ġbr": 345,
      "ish": 346,
      "Ġr": 347,
      "Ġlet": 348,
      "all": 349,
      "ame": 350,
      "ig": 351,
      "ong": 352,
      "ĠW": 353,
      "Ġgra": 354,
      "ICH": 355,
      "ves": 356,
      "ĠY": 357,
      "fore": 358,
      "Ġknow": 359,
      "Ġshe": 360,
      "irst": 361,
      "LO": 362,
      "ak": 363,
      "ci": 364,
      "ather": 365,
      "ICHARD": 366,
      "ort": 367,
      "hy": 368,
      "ward": 369,
      "ook": 370,
      "ure": 371,
      "gain": 372,
      "Ġhath": 373,
      "Whe": 374,
      "As": 375,
      "un": 376,
      "Ġwor": 377,
      "ost": 378,
      "Ġmay": 379,
      "Ġone": 380,
      "Ġj": 381,
      "OM": 382,
      "reat": 383,
      "ink": 384,
      "Ġcome": 385,
      "op": 386,
      "ound": 387,
      "Ġmake": 388,
      "Ġwell": 389,
      "Ġlike": 390,
      "EO": 391,
      "el": 392,
      "nce": 393,
      "Ġdid": 394,
      "Ġwere": 395,
      "Ġdeath": 396,
      "Ġshould": 397,
      "Ġmust": 398,
      "eak": 399,
      "Ġsee": 400,
      "UE": 401,
      "Ġen": 402,
      "Ġheart": 403,
      "ful": 404,
      "Ġsa": 405,
      "ity": 406,
      "ime": 407,
      "Ġtoo": 408,
      "ĠII": 409,
      "ĠRICHARD": 410,
      "TER": 411,
      "ick": 412,
      "Ġmad": 413,
      "Ġpl": 414,
      "Ġhad": 415,
      "Ġupon": 416,
      "AU": 417,
      "GLO": 418,
      "With": 419,
      "ESTER": 420,
      "UCESTER": 421,
      "GLOUCESTER": 422,
      "Ġdis": 423,
      "Ġblood": 424,
      "You": 425,
      "Ġout": 426,
      "ose": 427,
      "Ġfri": 428,
      "Which": 429,
      "ies": 430,
      "own": 431,
      "Ġhand": 432,
      "RY": 433,
      "Ġwhen": 434,
      "QUE": 435,
      "QUEEN": 436,
      "BR": 437,
      "First": 438,
      "ĠOF": 439,
      "He": 440,
      "oy": 441,
      "Ġagain": 442,
      "Ġpro": 443,
      "ence": 444,
      "fe": 445,
      "ect": 446,
      "Ġspeak": 447,
      "ince": 448,
      "ack": 449,
      "urse": 450,
      "old": 451,
      "har": 452,
      "Ġpo": 453,
      "In": 454,
      "Ġwhich": 455,
      "Ġday": 456,
      "Ġsome": 457,
      "Ġal": 458,
      "ance": 459,
      "Ġson": 460,
      "Ġwho": 461,
      "Ġyet": 462,
      "ENRY": 463,
      "ire": 464,
      "Ġhea": 465,
      "ice": 466,
      "Ġsir": 467,
      "orn": 468,
      "ign": 469,
      "Thou": 470,
      "Ġfo": 471,
      "Of": 472,
      "Ġmine": 473,
      "ag": 474,
      "If": 475,
      "ving": 476,
      "Ġfather": 477,
      "Ġhow": 478,
      "pt": 479,
      "ĠRome": 480,
      "Ġfriend": 481,
      "ORK": 482,
      "KE": 483,
      "wn": 484,
      "oul": 485,
      "rown": 486,
      "ct": 487,
      "ĠP": 488,
      "Ġro": 489,
      "man": 490,
      "INIUS": 491,
      "Ġey": 492,
      "ĠGod": 493,
      "Ġtime": 494,
      "Ġthese": 495,
      "iz": 496,
      "AM": 497,
      "So": 498,
      "DW": 499,
      "uch": 500,
      "DWARD": 501,
      "ef": 502,
      "eet": 503,
      "ither": 504,
      "Ġhon": 505,
      "ady": 506,
      "'t": 507,
      "Ġmar": 508,
      "Ġdes": 509,
      "Ġfl": 510,
      "ings": 511,
      "CE": 512,
      "This": 513,
      "not": 514,
      "Ġsl": 515,
      "Ġword": 516,
      "Ġhear": 517,
      "Ġoff": 518,
      "very": 519,
      "Ġgive": 520,
      "Ġex": 521,
      "No": 522,
      "Ġbre": 523,
      "Ġwhere": 524,
      "Ġwar": 525,
      "ise": 526,
      "Ġlook": 527,
      "dward": 528,
      "ness": 529,
      "ĠV": 530,
      "Ġtell": 531,
      "IO": 532,
      "MEN": 533,
      "ROM": 534,
      "ther": 535,
      "Ġfear": 536,
      "ORI": 537,
      "ROMEO": 538,
      "age": 539,
      "que": 540,
      "Ġmen": 541,
      "ENIUS": 542,
      "MENENIUS": 543,
      "Why": 544,
      "Ġtake": 545,
      "urn": 546,
      "Ġsuch": 547,
      "UT": 548,
      "ave": 549,
      "way": 550,
      "Ġab": 551,
      "Ġbrother": 552,
      "entle": 553,
      "How": 554,
      "We": 555,
      "Ġri": 556,
      "ower": 557,
      "ff": 558,
      "Ġcou": 559,
      "igh": 560,
      "Ġqu": 561,
      "Ġart": 562,
      "Where": 563,
      "Ġhast": 564,
      "Ġlife": 565,
      "ĠA": 566,
      "Ġlea": 567,
      "Ġpart": 568,
      "OLAN": 569,
      "ORIOLAN": 570,
      "ORIOLANUS": 571,
      "Be": 572,
      "CORIOLANUS": 573,
      "ap": 574,
      "ĠT": 575,
      "Ġmuch": 576,
      "Ġcannot": 577,
      "Ġmade": 578,
      "Now": 579,
      "ber": 580,
      "ĠEdward": 581,
      "Ġnew": 582,
      "NT": 583,
      "Ġthink": 584,
      "Ġnoble": 585,
      "Ġfair": 586,
      "Ġque": 587,
      "Ġqueen": 588,
      "Is": 589,
      "ase": 590,
      "tle": 591,
      "ĠD": 592,
      "de": 593,
      "Ġstand": 594,
      "ĠEDWARD": 595,
      "ee": 596,
      "Ġgentle": 597,
      "Ġdead": 598,
      "Who": 599,
      "ears": 600,
      "Ġnever": 601,
      "Or": 602,
      "Ġsoul": 603,
      "orrow": 604,
      "itiz": 605,
      "Ġhonour": 606,
      "itizen": 607,
      "Ġbet": 608,
      "ĠIII": 609,
      "Ġtw": 610,
      "ough": 611,
      "Ġcl": 612,
      "Ġarm": 613,
      "ger": 614,
      "ss": 615,
      "Ġgreat": 616,
      "Your": 617,
      "Ġmost": 618,
      "Ġnight": 619,
      "Ġtrue": 620,
      "tis": 621,
      "wick": 622,
      "ist": 623,
      "Ġdoth": 624,
      "Ġname": 625,
      "Ġheaven": 626,
      "cc": 627,
      "arwick": 628,
      "urd": 629,
      "ide": 630,
      "Ġsweet": 631,
      "land": 632,
      "ree": 633,
      "ved": 634,
      "Sec": 635,
      "Ġpre": 636,
      "ĠMar": 637,
      "ĠYORK": 638,
      "Second": 639,
      "Nor": 640,
      "Ġmother": 641,
      "Ġcomm": 642,
      "Ġra": 643,
      "Ġchi": 644,
      "Ġbeen": 645,
      "ĠLord": 646,
      "ment": 647,
      "ull": 648,
      "ation": 649,
      "ĠWarwick": 650,
      "uck": 651,
      "Ġsc": 652,
      "Ġway": 653,
      "Ġbear": 654,
      "It": 655,
      "Ġboth": 656,
      "Ġpres": 657,
      "ilt": 658,
      "AD": 659,
      "uke": 660,
      "Ġdown": 661,
      "ass": 662,
      "aught": 663,
      "Ġfriends": 664,
      "ADY": 665,
      "LADY": 666,
      "VOL": 667,
      "Ġhead": 668,
      "Ġunt": 669,
      "Then": 670,
      "ENCE": 671,
      "ause": 672,
      "By": 673,
      "Come": 674,
      "Ġown": 675,
      "Ġcall": 676,
      "Ay": 677,
      "hing": 678,
      "les": 679,
      "Ġad": 680,
      "Ġser": 681,
      "Ġwr": 682,
      "ite": 683,
      "Ġcrown": 684,
      "ĠCl": 685,
      "Ġeyes": 686,
      "JU": 687,
      "Than": 688,
      "ace": 689,
      "eace": 690,
      "LIET": 691,
      "Ġgrace": 692,
      "JULIET": 693,
      "SIC": 694,
      "less": 695,
      "Ġmo": 696,
      "SICINIUS": 697,
      "Ġbefore": 698,
      "Ġmyself": 699,
      "hard": 700,
      "ford": 701,
      "ans": 702,
      "Ġdone": 703,
      "There": 704,
      "Ġworld": 705,
      ",--": 706,
      "Ġpe": 707,
      "ife": 708,
      "Ġany": 709,
      "ĠJ": 710,
      "oud": 711,
      "ork": 712,
      "per": 713,
      "ouse": 714,
      "Ġlive": 715,
      "Ġcons": 716,
      "Ġchild": 717,
      "UM": 718,
      "Ġother": 719,
      "ĠIV": 720,
      "Ġlie": 721,
      "Ġnor": 722,
      "ichard": 723,
      "When": 724,
      "li": 725,
      "ĠF": 726,
      "Ġstay": 727,
      "Ġke": 728,
      "Ġper": 729,
      "AB": 730,
      "ZAB": 731,
      "Ġaway": 732,
      "Ġlong": 733,
      "Ġthus": 734,
      "Ġho": 735,
      "Ġbeg": 736,
      "Ġear": 737,
      "Ġrep": 738,
      "aint": 739,
      "ĠELI": 740,
      "ETH": 741,
      "ĠYork": 742,
      "Ġleave": 743,
      "ZABETH": 744,
      "ĠELIZABETH": 745,
      "able": 746,
      "me": 747,
      "well": 748,
      "Ġlords": 749,
      "Ġmany": 750,
      "Ġgr": 751,
      "Ġgri": 752,
      "Ġpray": 753,
      "HENRY": 754,
      "MER": 755,
      "ius": 756,
      "enry": 757,
      "Ġrem": 758,
      "ĠRomeo": 759,
      "ks": 760,
      "ps": 761,
      "llow": 762,
      "Ġple": 763,
      "Ġint": 764,
      "Ġthought": 765,
      "WAR": 766,
      "WIC": 767,
      "erc": 768,
      "Ġtong": 769,
      "atch": 770,
      "Ġprince": 771,
      "ĠVI": 772,
      "WARWIC": 773,
      "WARWICK": 774,
      "os": 775,
      "Ġtri": 776,
      "Ġset": 777,
      "hall": 778,
      "Ġla": 779,
      "ont": 780,
      "Ġrest": 781,
      "ĠHENRY": 782,
      "Ġpoor": 783,
      "Nurse": 784,
      "for": 785,
      "ought": 786,
      "Ġwh": 787,
      "ĠCitizen": 788,
      "Ġnews": 789,
      "HAM": 790,
      "Let": 791,
      "ile": 792,
      "Ġpeace": 793,
      "ield": 794,
      "AP": 795,
      "DU": 796,
      "His": 797,
      "LET": 798,
      "ULET": 799,
      "Ġapp": 800,
      "Ġma": 801,
      "Ġgone": 802,
      "Ġbeing": 803,
      "Ġhar": 804,
      "arth": 805,
      "ĠHenry": 806,
      "ople": 807,
      "APULET": 808,
      "DUKE": 809,
      "ious": 810,
      "sw": 811,
      "Ġim": 812,
      "ors": 813,
      "Ġle": 814,
      "atter": 815,
      "Ġever": 816,
      "ĠRichard": 817,
      "Ġcont": 818,
      "akes": 819,
      "ĠK": 820,
      "Ġhop": 821,
      "Ġstr": 822,
      "aughter": 823,
      "AS": 824,
      "yal": 825,
      "Ġthose": 826,
      "Ġhour": 827,
      "ons": 828,
      "Thy": 829,
      "cious": 830,
      "Ġvery": 831,
      "KINGHAM": 832,
      "ousin": 833,
      "UCKINGHAM": 834,
      "BRUT": 835,
      "BRUTUS": 836,
      "BUCKINGHAM": 837,
      "OKE": 838,
      "come": 839,
      "ier": 840,
      "int": 841,
      "Ġhigh": 842,
      "Ġpower": 843,
      "Ġhence": 844,
      "ows": 845,
      "Ġgu": 846,
      "INGBR": 847,
      "OLINGBR": 848,
      "ĠBOLINGBR": 849,
      "Ġagainst": 850,
      "Ġcount": 851,
      "Ġpeople": 852,
      "ĠBOLINGBROKE": 853,
      "LEO": 854,
      "RI": 855,
      "the": 856,
      "Ġtra": 857,
      "Ġmight": 858,
      "ert": 859,
      "ittle": 860,
      "NTES": 861,
      "LEONTES": 862,
      "ale": 863,
      "Ġlady": 864,
      "Ġhel": 865,
      "ĠMAR": 866,
      "Ġunto": 867,
      "LAR": 868,
      "Tis": 869,
      "Ġtre": 870,
      "Ġcour": 871,
      "Ġend": 872,
      "Ġearth": 873,
      "GAR": 874,
      "St": 875,
      "Ġent": 876,
      "Ġsle": 877,
      "Ġwife": 878,
      "ret": 879,
      "Ġban": 880,
      "Ġdie": 881,
      "vere": 882,
      "Ġcomes": 883,
      "ĠMARGAR": 884,
      "ĠMARGARET": 885,
      "Go": 886,
      "NE": 887,
      "On": 888,
      "cl": 889,
      "ins": 890,
      "Ġpri": 891,
      "Ġnothing": 892,
      "Ġdear": 893,
      "Ġkeep": 894,
      "Ġsm": 895,
      "Ġback": 896,
      "Ġold": 897,
      "Ġface": 898,
      "Ġtongue": 899,
      "ces": 900,
      "ied": 901,
      "iss": 902,
      "led": 903,
      "Ġres": 904,
      "ORD": 905,
      "aster": 906,
      "une": 907,
      "Not": 908,
      "che": 909,
      "ud": 910,
      "Ġwit": 911,
      "Ġwom": 912,
      "Ġlittle": 913,
      "Ġthine": 914,
      "arence": 915,
      "erer": 916,
      "red": 917,
      "orse": 918,
      "Ġdre": 919,
      "Ġthr": 920,
      "Ġput": 921,
      "Ġgl": 922,
      "roke": 923,
      "Ġcomp": 924,
      "cius": 925,
      "Ġright": 926,
      "Have": 927,
      "ab": 928,
      "Ġwo": 929,
      "ren": 930,
      "ham": 931,
      "Ġcould": 932,
      "Ġhouse": 933,
      "Ġyoung": 934,
      "eth": 935,
      "Ġstill": 936,
      "hile": 937,
      "Ġbetter": 938,
      "Shall": 939,
      "TH": 940,
      "ft": 941,
      "Ġtears": 942,
      "ison": 943,
      "Ġpur": 944,
      "sed": 945,
      "ird": 946,
      "Ġfort": 947,
      "They": 948,
      "Ġsub": 949,
      "ult": 950,
      "Ġjoy": 951,
      "Here": 952,
      "ged": 953,
      "Ġacc": 954,
      "ark": 955,
      "Ġwords": 956,
      "fter": 957,
      "ray": 958,
      "Ġche": 959,
      "Ġhimself": 960,
      "Ġhands": 961,
      "Ġroyal": 962,
      "Nay": 963,
      "Well": 964,
      "cle": 965,
      "vant": 966,
      "nder": 967,
      "Ġbra": 968,
      "ates": 969,
      "Ġforth": 970,
      "Ġel": 971,
      "Ġenem": 972,
      "Ġfollow": 973,
      "DUC": 974,
      "HES": 975,
      "ail": 976,
      "get": 977,
      "Ġmind": 978,
      "Ġcousin": 979,
      "Ġkill": 980,
      "ardon": 981,
      "ĠEng": 982,
      "ress": 983,
      "Ġtwo": 984,
      "Ġhope": 985,
      "DUCHES": 986,
      "DUCHESS": 987,
      "ach": 988,
      "iol": 989,
      "men": 990,
      "Ġbest": 991,
      "Ġthing": 992,
      "Ġhome": 993,
      "Ġhate": 994,
      "ew": 995,
      "oub": 996,
      "Ġmis": 997,
      "Ġco": 998,
      "Ġland": 999,
      "Ġneed": 1000,
      "urderer": 1001,
      "ĠMarcius": 1002,
      "lt": 1003,
      "vy": 1004,
      "Ġbod": 1005,
      "Ġboy": 1006,
      "Ġmean": 1007,
      "Ġweep": 1008,
      "Ġkind": 1009,
      "alk": 1010,
      "ĠDuke": 1011,
      "ĠClarence": 1012,
      "IA": 1013,
      "ix": 1014,
      "ru": 1015,
      "Ġsorrow": 1016,
      "ory": 1017,
      "Ġlast": 1018,
      "Ġgod": 1019,
      "Ġlight": 1020,
      "Ġconf": 1021,
      "All": 1022,
      "From": 1023,
      "Our": 1024,
      "Yet": 1025,
      "iet": 1026,
      "tw": 1027,
      "Ġcause": 1028,
      "Ġhapp": 1029,
      "ool": 1030,
      "Ġstate": 1031,
      "Ġgrief": 1032,
      "ĠKing": 1033,
      "Ġhelp": 1034,
      "Ġelse": 1035,
      "RE": 1036,
      "eed": 1037,
      "fort": 1038,
      "Ġtill": 1039,
      "Ġbid": 1040,
      "Ġfind": 1041,
      "Ġchar": 1042,
      "ary": 1043,
      "ĠSer": 1044,
      "LE": 1045,
      "She": 1046,
      "ty": 1047,
      "Ġfight": 1048,
      "ried": 1049,
      "Ġshow": 1050,
      "ices": 1051,
      "Ġgracious": 1052,
      "Ġsaid": 1053,
      "eech": 1054,
      "COM": 1055,
      "eel": 1056,
      "mb": 1057,
      "sand": 1058,
      "Ġchan": 1059,
      "Ġere": 1060,
      "COMINIUS": 1061,
      "LAN": 1062,
      "Ġwhy": 1063,
      "Ġless": 1064,
      "uth": 1065,
      "Ġthough": 1066,
      "Ġthousand": 1067,
      "Ġonce": 1068,
      "esty": 1069,
      "Ġsword": 1070,
      "Ġtherefore": 1071,
      "Ġtrait": 1072,
      "LARENCE": 1073,
      "LAND": 1074,
      "CLARENCE": 1075,
      "day": 1076,
      "Ġfirst": 1077,
      "Ġpass": 1078,
      "Ġstre": 1079,
      "alt": 1080,
      "swer": 1081,
      "BEN": 1082,
      "Good": 1083,
      "God": 1084,
      "IL": 1085,
      "NOR": 1086,
      "lf": 1087,
      "Ġmakes": 1088,
      "Ġnat": 1089,
      "Ġsovere": 1090,
      "Ġshame": 1091,
      "Ġsun": 1092,
      "Ġvo": 1093,
      "VOLIO": 1094,
      "BENVOLIO": 1095,
      "ON": 1096,
      "Un": 1097,
      "ount": 1098,
      "Ġfell": 1099,
      "Ġfall": 1100,
      "selves": 1101,
      "ction": 1102,
      "CUT": 1103,
      "be": 1104,
      "ject": 1105,
      "Ġfar": 1106,
      "Ġfull": 1107,
      "Ġdaughter": 1108,
      "Ġcare": 1109,
      "Ġhus": 1110,
      "Ġevery": 1111,
      "ury": 1112,
      "ĠMurderer": 1113,
      "ump": 1114,
      "Ġwhose": 1115,
      "MERCUT": 1116,
      "Ġcountry": 1117,
      "Ġbanish": 1118,
      "MERCUTIO": 1119,
      "IS": 1120,
      "band": 1121,
      "ock": 1122,
      "Ġbu": 1123,
      "Ġnone": 1124,
      "ator": 1125,
      "Ġmeet": 1126,
      "Ġreven": 1127,
      "Ġanswer": 1128,
      "Ġeye": 1129,
      "Ġcoun": 1130,
      "Ġpresent": 1131,
      "Ġimp": 1132,
      "Hath": 1133,
      "eal": 1134,
      "ild": 1135,
      "ove": 1136,
      "Ġsince": 1137,
      "iness": 1138,
      "Ġwilt": 1139,
      "Ġbes": 1140,
      "Ġfal": 1141,
      "Ġpat": 1142,
      "oubt": 1143,
      "Ġhusband": 1144,
      "FRI": 1145,
      "Up": 1146,
      "Will": 1147,
      "Ġbri": 1148,
      "ition": 1149,
      "Ġdev": 1150,
      "Ġdeed": 1151,
      "hip": 1152,
      "FRIAR": 1153,
      "YORK": 1154,
      "air": 1155,
      "its": 1156,
      "Ġpardon": 1157,
      "Ġseem": 1158,
      "NIA": 1159,
      "balt": 1160,
      "iv": 1161,
      "ling": 1162,
      "pose": 1163,
      "rance": 1164,
      "ybalt": 1165,
      "ĠNor": 1166,
      "Ġturn": 1167,
      "Ġdr": 1168,
      "Ġdan": 1169,
      "Ġcame": 1170,
      "arry": 1171,
      "Ġhold": 1172,
      "uty": 1173,
      "ester": 1174,
      "Ġarms": 1175,
      "VOLUM": 1176,
      "Ġfortune": 1177,
      "Ġsovereign": 1178,
      "VOLUMNIA": 1179,
      ".'": 1180,
      "Cl": 1181,
      "TING": 1182,
      "ener": 1183,
      "Ġproud": 1184,
      "ague": 1185,
      "vingman": 1186,
      "AMIL": 1187,
      "Ġbreath": 1188,
      "Ġabout": 1189,
      "Ġwrong": 1190,
      "ASTING": 1191,
      "Ġbody": 1192,
      "ĠServingman": 1193,
      "ASTINGS": 1194,
      "Do": 1195,
      "HASTINGS": 1196,
      "RENCE": 1197,
      "broke": 1198,
      "Ġafter": 1199,
      "Ġwant": 1200,
      "ceive": 1201,
      "Ġlies": 1202,
      "Ġdost": 1203,
      "Third": 1204,
      "ĠLAU": 1205,
      "Ġbring": 1206,
      "Ġbloody": 1207,
      "Ġlaw": 1208,
      "ĠLAURENCE": 1209,
      "BY": 1210,
      "BER": 1211,
      "Ġover": 1212,
      "Ġdoubt": 1213,
      "Ġcha": 1214,
      "Ġhum": 1215,
      "Ġret": 1216,
      "Ġlives": 1217,
      "ason": 1218,
      "asure": 1219,
      "Ġsold": 1220,
      "ament": 1221,
      "Ġsend": 1222,
      "ict": 1223,
      "Ġgrave": 1224,
      "Ġworth": 1225,
      "Ġplace": 1226,
      "Ġwhom": 1227,
      "Ġsleep": 1228,
      "An": 1229,
      "CLI": 1230,
      "Even": 1231,
      "FF": 1232,
      "Sh": 1233,
      "dd": 1234,
      "Ġtalk": 1235,
      "Ġdra": 1236,
      "enger": 1237,
      "Ġheard": 1238,
      "imes": 1239,
      "vers": 1240,
      "Ġru": 1241,
      "UMBER": 1242,
      "Ġinto": 1243,
      "THUMBER": 1244,
      "ĠEngland": 1245,
      "Ġgods": 1246,
      "Ġhappy": 1247,
      "NORTHUMBER": 1248,
      "CLIFF": 1249,
      "NORTHUMBERLAND": 1250,
      "ID": 1251,
      "More": 1252,
      "by": 1253,
      "pe": 1254,
      "ĠWhat": 1255,
      "Ġwound": 1256,
      "Ġbed": 1257,
      "Ġeven": 1258,
      "Ġstri": 1259,
      "ARC": 1260,
      "essenger": 1261,
      "hold": 1262,
      "Ġatt": 1263,
      "Ġmadam": 1264,
      "Ġfalse": 1265,
      "At": 1266,
      "ience": 1267,
      "pect": 1268,
      "rant": 1269,
      "ĠAN": 1270,
      "Ġwish": 1271,
      "Ġfool": 1272,
      "Ġhither": 1273,
      "anc": 1274,
      "Ġdef": 1275,
      "Ġfare": 1276,
      "Ġanother": 1277,
      "Ġprove": 1278,
      "Ġmaj": 1279,
      "Ġtraitor": 1280,
      "ĠANNE": 1281,
      "CAPULET": 1282,
      "PR": 1283,
      "Ġaff": 1284,
      "Ġmist": 1285,
      "ised": 1286,
      "Ġch": 1287,
      "Ġyours": 1288,
      "ENES": 1289,
      "INCE": 1290,
      "ifford": 1291,
      "Ġval": 1292,
      "Ġuncle": 1293,
      "gainst": 1294,
      "Ġjust": 1295,
      "Ġholy": 1296,
      "Ġplease": 1297,
      "Ġdream": 1298,
      "Upon": 1299,
      "PRINCE": 1300,
      "AT": 1301,
      "Ah": 1302,
      "ily": 1303,
      "Ġtend": 1304,
      "Ġsound": 1305,
      "oriol": 1306,
      "Ġcity": 1307,
      "Ġlay": 1308,
      "ingbroke": 1309,
      "Ġshalt": 1310,
      "olingbroke": 1311,
      "Ġchildren": 1312,
      "Ġmajesty": 1313,
      "Al": 1314,
      "pl": 1315,
      "Ġwind": 1316,
      "Ġdare": 1317,
      "ars": 1318,
      "Ġpity": 1319,
      "irt": 1320,
      "ĠMont": 1321,
      "Ġcomfort": 1322,
      "ĠBolingbroke": 1323,
      "unes": 1324,
      "Ġbreak": 1325,
      "Ġsubject": 1326,
      ",'": 1327,
      "Are": 1328,
      "Lord": 1329,
      "Mad": 1330,
      "pen": 1331,
      "sh": 1332,
      "hed": 1333,
      "Ġsen": 1334,
      "Ġyears": 1335,
      "omet": 1336,
      "Ġgi": 1337,
      "Ġinf": 1338,
      "illain": 1339,
      "Ġstra": 1340,
      "Ġonly": 1341,
      "ĠClifford": 1342,
      "IX": 1343,
      "POL": 1344,
      "cher": 1345,
      "ian": 1346,
      "unt": 1347,
      "Ġi": 1348,
      "Ġsent": 1349,
      "Ġbo": 1350,
      "Ġoath": 1351,
      "Ġduke": 1352,
      "Ġlate": 1353,
      "Ġyield": 1354,
      "eter": 1355,
      "Ġsec": 1356,
      "Ġrather": 1357,
      "Ġdays": 1358,
      "Ġdeser": 1359,
      "Ġslain": 1360,
      "Ġliege": 1361,
      "ĠFrance": 1362,
      "Ġcourt": 1363,
      "IXENES": 1364,
      "POLIXENES": 1365,
      "AL": 1366,
      "FID": 1367,
      "Sir": 1368,
      "Were": 1369,
      "Ġmurd": 1370,
      "ister": 1371,
      "Ġden": 1372,
      "Ġnurse": 1373,
      "Ġpers": 1374,
      "Ġgener": 1375,
      "Ġbel": 1376,
      "Ġuse": 1377,
      "ĠCAPULET": 1378,
      "Ġtruth": 1379,
      "Ġplay": 1380,
      "AUFID": 1381,
      "Ġdisc": 1382,
      "Ġlooks": 1383,
      "Ġserv": 1384,
      "Ġnature": 1385,
      "Ġfarewell": 1386,
      "AUFIDIUS": 1387,
      "ike": 1388,
      "of": 1389,
      "ple": 1390,
      "ues": 1391,
      "use": 1392,
      "we": 1393,
      "Ġmerc": 1394,
      "Ġmatter": 1395,
      "rel": 1396,
      "ute": 1397,
      "Ġwel": 1398,
      "ĠTybalt": 1399,
      "Therefore": 1400,
      "ĠJul": 1401,
      "Ġwoe": 1402,
      "Ġdanger": 1403,
      "CAMIL": 1404,
      "Would": 1405,
      "ten": 1406,
      "vent": 1407,
      "Ġill": 1408,
      "ouch": 1409,
      "hal": 1410,
      "Ġbat": 1411,
      "Ġfly": 1412,
      "enator": 1413,
      "Ġunder": 1414,
      "alm": 1415,
      "Ġrec": 1416,
      "ĠCome": 1417,
      "ERS": 1418,
      "Ġthank": 1419,
      "ĠSenator": 1420,
      "deed": 1421,
      "Ġbeseech": 1422,
      "Ġtender": 1423,
      "CAMILLO": 1424,
      "RICHARD": 1425,
      "cester": 1426,
      "lou": 1427,
      "morrow": 1428,
      "up": 1429,
      "Ġsit": 1430,
      "Ġdeep": 1431,
      "Ġfault": 1432,
      "Ġvillain": 1433,
      "arewell": 1434,
      "umber": 1435,
      "aunt": 1436,
      "Ġheavy": 1437,
      "Ġfoot": 1438,
      "eft": 1439,
      "Ġcommon": 1440,
      "like": 1441,
      "Ġremem": 1442,
      "gether": 1443,
      "Ġrevenge": 1444,
      "Give": 1445,
      "bs": 1446,
      "dom": 1447,
      "ia": 1448,
      "ken": 1449,
      "oke": 1450,
      "Ġsad": 1451,
      "Ġcr": 1452,
      "Ġcra": 1453,
      "Ġcurse": 1454,
      "Ġleft": 1455,
      "ingham": 1456,
      "Ġrequ": 1457,
      "Ġthyself": 1458,
      "ĠRi": 1459,
      "olk": 1460,
      "Ġswear": 1461,
      "Ġjo": 1462,
      "Ġground": 1463,
      "Ġwoman": 1464,
      "Ġgeneral": 1465,
      "ĠJuliet": 1466,
      "MARC": 1467,
      "Say": 1468,
      "Take": 1469,
      "Ġwhile": 1470,
      "Ġbus": 1471,
      "Ġfoul": 1472,
      "Ġcur": 1473,
      "Ġcry": 1474,
      "Ġhorse": 1475,
      "Ġgre": 1476,
      "any": 1477,
      "Ġbeat": 1478,
      "Ġindeed": 1479,
      "ours": 1480,
      "Ġsoon": 1481,
      "Ġsupp": 1482,
      "ĠCoriol": 1483,
      "Ġfaith": 1484,
      "Ġvirt": 1485,
      "astings": 1486,
      "ols": 1487,
      "Ġcommand": 1488,
      "uckingham": 1489,
      "Ġenemy": 1490,
      "ĠMontague": 1491,
      "loucester": 1492,
      "MARCIUS": 1493,
      "Sp": 1494,
      "Tw": 1495,
      "folk": 1496,
      "Ġtem": 1497,
      "Ġsea": 1498,
      "Ġmon": 1499,
      "Ġwin": 1500,
      "Ġfire": 1501,
      "Ġprom": 1502,
      "Ġwithout": 1503,
      "These": 1504,
      "Ġkiss": 1505,
      "Ġnob": 1506,
      "ĠHere": 1507,
      "ĠHastings": 1508,
      "ĠBuckingham": 1509,
      "Whose": 1510,
      "Ġears": 1511,
      "form": 1512,
      "Clown": 1513,
      "Ġreturn": 1514,
      "!'": 1515,
      "MO": 1516,
      "Was": 1517,
      "ial": 1518,
      "iers": 1519,
      "ms": 1520,
      "night": 1521,
      "ĠAU": 1522,
      "Ġsight": 1523,
      "Ġsomet": 1524,
      "Ġfore": 1525,
      "Ġfield": 1526,
      "Ġthings": 1527,
      "Ġthree": 1528,
      "Ġpost": 1529,
      "Ġbea": 1530,
      "Ġhas": 1531,
      "Ġmeans": 1532,
      "Ġseen": 1533,
      "ĠCap": 1534,
      "Ġgold": 1535,
      "Ġenough": 1536,
      "Ġmark": 1537,
      "Ġgentleman": 1538,
      "MERLE": 1539,
      "Ġvoices": 1540,
      "Ġfellow": 1541,
      "Ġwelcome": 1542,
      "ĠAUMERLE": 1543,
      "AG": 1544,
      "Had": 1545,
      "HER": 1546,
      "ient": 1547,
      "mer": 1548,
      "Ġaw": 1549,
      "Ġage": 1550,
      "Ġmer": 1551,
      "Ġfree": 1552,
      "Ġheir": 1553,
      "Ġget": 1554,
      "Ġgrow": 1555,
      "ced": 1556,
      "Ġdep": 1557,
      "ains": 1558,
      "Ġloss": 1559,
      "ĠGloucester": 1560,
      "ĠLanc": 1561,
      "Ġsaw": 1562,
      "itizens": 1563,
      "Ġgrant": 1564,
      "Ġmaid": 1565,
      "Ġhard": 1566,
      "Ġstreng": 1567,
      "Ġmercy": 1568,
      "ĠLancaster": 1569,
      "Against": 1570,
      "Look": 1571,
      "Tell": 1572,
      "Wh": 1573,
      "aim": 1574,
      "fid": 1575,
      "gs": 1576,
      "ring": 1577,
      "Ġsil": 1578,
      "Ġmaster": 1579,
      "Ġfur": 1580,
      "ery": 1581,
      "Ġcond": 1582,
      "Ġtold": 1583,
      "Ġpast": 1584,
      "ceed": 1585,
      "ets": 1586,
      "ents": 1587,
      "ush": 1588,
      "usic": 1589,
      "Ġsays": 1590,
      "Ġletter": 1591,
      "Ġalone": 1592,
      "Ġfearful": 1593,
      "Ġhours": 1594,
      "Ġthrough": 1595,
      "Ġenemies": 1596,
      "Ġworthy": 1597,
      "Ġmurder": 1598,
      "Did": 1599,
      "Farewell": 1600,
      "Like": 1601,
      "Some": 1602,
      "aw": 1603,
      "eep": 1604,
      "no": 1605,
      "vo": 1606,
      "xt": 1607,
      "Ġtimes": 1608,
      "Ġair": 1609,
      "Ġbold": 1610,
      "Ġborn": 1611,
      "Ġtogether": 1612,
      "Ġhell": 1613,
      "oman": 1614,
      "Ġeach": 1615,
      "ads": 1616,
      "herd": 1617,
      "ross": 1618,
      "Ġspir": 1619,
      "onder": 1620,
      "Ġhearts": 1621,
      "Ġhaste": 1622,
      "Ġthoughts": 1623,
      "Ġtrib": 1624,
      "Ġstrong": 1625,
      "ches": 1626,
      "ĠNorfolk": 1627,
      "CLIFFORD": 1628,
      "Ġstraight": 1629,
      "Ġperson": 1630,
      "Com": 1631,
      "Can": 1632,
      "EDWARD": 1633,
      "Her": 1634,
      "LORD": 1635,
      "May": 1636,
      "MIO": 1637,
      "bed": 1638,
      "su": 1639,
      "ting": 1640,
      "ufid": 1641,
      "ĠBut": 1642,
      "Ġtit": 1643,
      "Ġmet": 1644,
      "Ġbos": 1645,
      "Ġca": 1646,
      "Ġcold": 1647,
      "Ġnear": 1648,
      "Ġtoward": 1649,
      "ones": 1650,
      "cept": 1651,
      "let": 1652,
      "Ġwithin": 1653,
      "Ġlose": 1654,
      "earn": 1655,
      "Ġshort": 1656,
      "Ġrun": 1657,
      "Ġpluck": 1658,
      "Ġdisp": 1659,
      "BRA": 1660,
      "Ġpoint": 1661,
      "Ġquick": 1662,
      "Ġconsul": 1663,
      "Ġcontent": 1664,
      "One": 1665,
      "REY": 1666,
      "HERMIO": 1667,
      "ufidius": 1668,
      "Ġbosom": 1669,
      "HERMIONE": 1670,
      "CUS": 1671,
      "HN": 1672,
      "OHN": 1673,
      "PS": 1674,
      "TOL": 1675,
      "YCUS": 1676,
      "ges": 1677,
      "pherd": 1678,
      "sue": 1679,
      "to": 1680,
      "und": 1681,
      "ĠTh": 1682,
      "outh": 1683,
      "Ġside": 1684,
      "Ġcho": 1685,
      "Ġinc": 1686,
      "Ġinst": 1687,
      "chm": 1688,
      "Ġwear": 1689,
      "enty": 1690,
      "Ġass": 1691,
      "Ġlost": 1692,
      "Ġloving": 1693,
      "iff": 1694,
      "Ġcanst": 1695,
      "ieve": 1696,
      "aking": 1697,
      "ured": 1698,
      "Ġsave": 1699,
      "AUTOL": 1700,
      "Though": 1701,
      "Ġdesp": 1702,
      "Ġcloud": 1703,
      "ertain": 1704,
      "Ġcounsel": 1705,
      "Should": 1706,
      "Ġservice": 1707,
      "Ġremember": 1708,
      "ĠHereford": 1709,
      "Ġstrength": 1710,
      "AUTOLYCUS": 1711,
      "io": 1712,
      "ted": 1713,
      "Ġter": 1714,
      "Ġsin": 1715,
      "Ġsing": 1716,
      "Ġbad": 1717,
      "Ġdiv": 1718,
      "Ġpar": 1719,
      "Ġpale": 1720,
      "oward": 1721,
      "Ġgates": 1722,
      "anus": 1723,
      "Ġbehold": 1724,
      "Ġyourself": 1725,
      "Ġask": 1726,
      "ils": 1727,
      "Ġprison": 1728,
      "ĠYou": 1729,
      "Ġpoison": 1730,
      "Ġfoe": 1731,
      "Ġbreast": 1732,
      "ĠTower": 1733,
      "Ġhighness": 1734,
      "Ġguilt": 1735,
      "Ġcharge": 1736,
      "Madam": 1737,
      "Ġbattle": 1738,
      "Ġtitle": 1739,
      "chmond": 1740,
      "Bec": 1741,
      "CAT": 1742,
      "IR": 1743,
      "Messenger": 1744,
      "gare": 1745,
      "ran": 1746,
      "Ġsame": 1747,
      "ined": 1748,
      "Ġwat": 1749,
      "Ġwall": 1750,
      "Ġwret": 1751,
      "orge": 1752,
      "Ġfeel": 1753,
      "Ġlearn": 1754,
      "Ġye": 1755,
      "ution": 1756,
      "Ġitself": 1757,
      "ift": 1758,
      "ESBY": 1759,
      "Ġblack": 1760,
      "Ġbrought": 1761,
      "inks": 1762,
      "ĠAufidius": 1763,
      "Ġmock": 1764,
      "Ġchee": 1765,
      "Ġsoldiers": 1766,
      "Ġstrike": 1767,
      "Ġbusiness": 1768,
      "Ġfurther": 1769,
      "CATESBY": 1770,
      "garet": 1771,
      "LIN": 1772,
      "PAU": 1773,
      "Till": 1774,
      "hood": 1775,
      "Ġsick": 1776,
      "Ġmin": 1777,
      "ished": 1778,
      "aris": 1779,
      "Ġyouth": 1780,
      "oop": 1781,
      "Ġem": 1782,
      "amill": 1783,
      "Ġdoes": 1784,
      "Ġsure": 1785,
      "Ġven": 1786,
      "Ġvict": 1787,
      "ĠLond": 1788,
      "Ġsworn": 1789,
      "Ġtrust": 1790,
      "ortal": 1791,
      "Ġdist": 1792,
      "Ġsons": 1793,
      "Ġwars": 1794,
      "ĠVols": 1795,
      "Ġquar": 1796,
      "Ġsouls": 1797,
      "Ġpurpose": 1798,
      "Ġwounds": 1799,
      "LINA": 1800,
      "PAULINA": 1801,
      "ĠLondon": 1802,
      "BAL": 1803,
      "ILI": 1804,
      "JOHN": 1805,
      "Rome": 1806,
      "Ser": 1807,
      "VERS": 1808,
      "az": 1809,
      "ever": 1810,
      "hes": 1811,
      "ouble": 1812,
      "Ġbit": 1813,
      "Ġbrow": 1814,
      "Ġbreat": 1815,
      "Ġopen": 1816,
      "Ġgave": 1817,
      "Ġhalf": 1818,
      "Ġweak": 1819,
      "riage": 1820,
      "urp": 1821,
      "Ġreg": 1822,
      "Ġdeli": 1823,
      "hil": 1824,
      "Ġsum": 1825,
      "Ġsuff": 1826,
      "Ġfast": 1827,
      "Ġknows": 1828,
      "Ġseek": 1829,
      "Ġstands": 1830,
      "ĠMargaret": 1831,
      "Ġserve": 1832,
      "Ġbegg": 1833,
      "Ġreport": 1834,
      "Ġgrie": 1835,
      "Ġenter": 1836,
      "ixt": 1837,
      "ĠRichmond": 1838,
      "ILIA": 1839,
      "Re": 1840,
      "Since": 1841,
      "See": 1842,
      "Unt": 1843,
      "eorge": 1844,
      "ses": 1845,
      "Ġty": 1846,
      "Ġbound": 1847,
      "Ġcast": 1848,
      "atis": 1849,
      "Ġhang": 1850,
      "Ġissue": 1851,
      "Ġlips": 1852,
      "Ġdel": 1853,
      "ander": 1854,
      "Ġseat": 1855,
      "Ġsuit": 1856,
      "Ġspeed": 1857,
      "ions": 1858,
      "Ġnext": 1859,
      "ends": 1860,
      "ĠGAU": 1861,
      "ĠGeorge": 1862,
      "Ġprop": 1863,
      "Ġalong": 1864,
      "ĠParis": 1865,
      "Ġflatter": 1866,
      "Ġwarrant": 1867,
      "Ġtwenty": 1868,
      "Ġpret": 1869,
      "Ġharm": 1870,
      "RIVERS": 1871,
      "Ġentreat": 1872,
      "ched": 1873,
      "Ġdangerous": 1874,
      "Ġspirit": 1875,
      "amillo": 1876,
      "Servant": 1877,
      "ĠGAUNT": 1878,
      "Ha": 1879,
      "Pro": 1880,
      "TY": 1881,
      "bl": 1882,
      "iant": 1883,
      "sp": 1884,
      "xford": 1885,
      "ĠKING": 1886,
      "Ġten": 1887,
      "Ġtouch": 1888,
      "Ġsign": 1889,
      "Ġmorn": 1890,
      "Ġwatch": 1891,
      "Ġdam": 1892,
      "Ġdire": 1893,
      "Ġcut": 1894,
      "Ġlament": 1895,
      "arl": 1896,
      "owers": 1897,
      "Ġinter": 1898,
      "ourn": 1899,
      "Ġund": 1900,
      "ries": 1901,
      "Ġread": 1902,
      "Thus": 1903,
      "Ġloves": 1904,
      "Ġvis": 1905,
      "Ġwork": 1906,
      "Ġjud": 1907,
      "els": 1908,
      "Ġposs": 1909,
      "Ġmarriage": 1910,
      "Before": 1911,
      "NTAG": 1912,
      "Ġclose": 1913,
      "Ġrage": 1914,
      "Ġprincely": 1915,
      "Ġstran": 1916,
      "Ġcourse": 1917,
      "Ġresol": 1918,
      "Ġthrone": 1919,
      "Unless": 1920,
      "dden": 1921,
      "Ġdraw": 1922,
      "Ġbeauty": 1923,
      "Ġtribunes": 1924,
      "Ġquarrel": 1925,
      "Romeo": 1926,
      "NTAGUE": 1927,
      "Away": 1928,
      "Pray": 1929,
      "most": 1930,
      "vour": 1931,
      "Ġve": 1932,
      "Ġsk": 1933,
      "Ġsake": 1934,
      "Ġburn": 1935,
      "Ġfrown": 1936,
      "lly": 1937,
      "Ġdish": 1938,
      "Ġcor": 1939,
      "Ġcoward": 1940,
      "Ġlad": 1941,
      "Ġthri": 1942,
      "Ġtown": 1943,
      "Ġbec": 1944,
      "irth": 1945,
      "Ġforb": 1946,
      "oose": 1947,
      "right": 1948,
      "Ġstir": 1949,
      "Ġkins": 1950,
      "Ġreason": 1951,
      "ides": 1952,
      "thumber": 1953,
      "ETER": 1954,
      "ĠLady": 1955,
      "Ġmarry": 1956,
      "Ġexec": 1957,
      "Being": 1958,
      "Ġscorn": 1959,
      "Ġpresence": 1960,
      "Ġmighty": 1961,
      "ethinks": 1962,
      "Ġbrave": 1963,
      "twas": 1964,
      "Ġvaliant": 1965,
      "ween": 1966,
      "Speak": 1967,
      "hilst": 1968,
      "thumberland": 1969,
      "Both": 1970,
      "GRE": 1971,
      "GILIA": 1972,
      "Lest": 1973,
      "OP": 1974,
      "Sw": 1975,
      "VIR": 1976,
      "bour": 1977,
      "ives": 1978,
      "kes": 1979,
      "lant": 1980,
      "lish": 1981,
      "over": 1982,
      "pare": 1983,
      "tre": 1984,
      "Ġtale": 1985,
      "Ġact": 1986,
      "Ġmal": 1987,
      "Ġwast": 1988,
      "rey": 1989,
      "ready": 1990,
      "Ġbab": 1991,
      "Ġfit": 1992,
      "Ġfour": 1993,
      "Ġduty": 1994,
      "Ġcar": 1995,
      "Ġcham": 1996,
      "esh": 1997,
      "ona": 1998,
      "ley": 1999,
      "Ġforget": 2000,
      "Their": 2001,
      "race": 2002,
      "east": 2003,
      "Ġself": 2004,
      "ĠCamillo": 2005,
      "Ġbless": 2006,
      "Ġprot": 2007,
      "Ġthemselves": 2008,
      "ĠGREY": 2009,
      "Ġkingdom": 2010,
      "empt": 2011,
      "umb": 2012,
      "cient": 2013,
      "elcome": 2014,
      "Ġdidst": 2015,
      "Ġalready": 2016,
      "Ġslaughter": 2017,
      "ments": 2018,
      "Ġtriump": 2019,
      "Ġchange": 2020,
      "Ġvoice": 2021,
      "Ġpatience": 2022,
      "Ġattend": 2023,
      "Ġdefend": 2024,
      "MONTAGUE": 2025,
      "atisf": 2026,
      "VIRGILIA": 2027,
      "IT": 2028,
      "Make": 2029,
      "gu": 2030,
      "ip": 2031,
      "ires": 2032,
      "mit": 2033,
      "so": 2034,
      "ught": 2035,
      "with": 2036,
      "Ġtear": 2037,
      "Ġmortal": 2038,
      "Ġwa": 2039,
      "Ġwid": 2040,
      "Ġfound": 2041,
      "Ġfeast": 2042,
      "Ġopp": 2043,
      "ench": 2044,
      "Ġthrow": 2045,
      "Ġhur": 2046,
      "Ġpay": 2047,
      "Ġpra": 2048,
      "Ġgot": 2049,
      "Ġbecome": 2050,
      "ade": 2051,
      "order": 2052,
      "Ġreceive": 2053,
      "ided": 2054,
      "Ġsudden": 2055,
      "ĠCa": 2056,
      "Ġancient": 2057,
      "Ġkings": 2058,
      "ĠOxford": 2059,
      "Ġwash": 2060,
      "Ġknown": 2061,
      "Ġenc": 2062,
      "Ġsac": 2063,
      "Ġplain": 2064,
      "agen": 2065,
      "Ġhonest": 2066,
      "Ġmarried": 2067,
      "Ġdesire": 2068,
      "Ġheavens": 2069,
      "Ġheads": 2070,
      "Ġwrit": 2071,
      "Ġmove": 2072,
      "Ġlead": 2073,
      "Ġslew": 2074,
      "Ġcheer": 2075,
      "Ġbuy": 2076,
      "Ġmistress": 2077,
      "Alas": 2078,
      "Ġdeny": 2079,
      "Ġrequest": 2080,
      "ĠCoriolanus": 2081,
      "Ġdeliver": 2082,
      "Ġsuffer": 2083,
      "Hold": 2084,
      "Must": 2085,
      "PAR": 2086,
      "Tr": 2087,
      "cent": 2088,
      "cess": 2089,
      "po": 2090,
      "rit": 2091,
      "rist": 2092,
      "uous": 2093,
      "used": 2094,
      "Ġag": 2095,
      "oun": 2096,
      "Ġsigh": 2097,
      "Ġsatisf": 2098,
      "Ġmouth": 2099,
      "Ġwise": 2100,
      "Ġbar": 2101,
      "Ġbow": 2102,
      "Ġble": 2103,
      "Ġfled": 2104,
      "Ġdro": 2105,
      "Ġlim": 2106,
      "ens": 2107,
      "onour": 2108,
      "Ġgro": 2109,
      "ats": 2110,
      "Ġeither": 2111,
      "Ġreb": 2112,
      "Ġred": 2113,
      "Ġshad": 2114,
      "Ġsucc": 2115,
      "Ġspoke": 2116,
      "Ġneither": 2117,
      "Ġviol": 2118,
      "Ġblows": 2119,
      "Ġknee": 2120,
      "Ġthanks": 2121,
      "Ġgoes": 2122,
      "Ġmarch": 2123,
      "Ġexp": 2124,
      "Ġconsent": 2125,
      "then": 2126,
      "Ġdread": 2127,
      "Ġweeping": 2128,
      "twere": 2129,
      "Ġdevil": 2130,
      "Ġdrum": 2131,
      "Ġjustice": 2132,
      "Ġgiven": 2133,
      "Ġdepart": 2134,
      "Because": 2135,
      "lantagen": 2136,
      "PARIS": 2137,
      "Call": 2138,
      "Ere": 2139,
      "Marry": 2140,
      "Welcome": 2141,
      "chan": 2142,
      "ees": 2143,
      "eath": 2144,
      "ler": 2145,
      "ner": 2146,
      "ung": 2147,
      "vol": 2148,
      "ĠFor": 2149,
      "hee": 2150,
      "Ġwonder": 2151,
      "Ġfier": 2152,
      "Ġdest": 2153,
      "otion": 2154,
      "ators": 2155,
      "set": 2156,
      "Ġur": 2157,
      "Ġforg": 2158,
      "oof": 2159,
      "Ġliving": 2160,
      "raw": 2161,
      "each": 2162,
      "Ġdoom": 2163,
      "ĠCh": 2164,
      "Ġvow": 2165,
      "astard": 2166,
      "Ġusurp": 2167,
      "aken": 2168,
      "Ġworse": 2169,
      "Ġsafe": 2170,
      "Ġtook": 2171,
      "ired": 2172,
      "Ġgentlemen": 2173,
      "Ġscar": 2174,
      "Stay": 2175,
      "Ġpriv": 2176,
      "Ġwithal": 2177,
      "Ġcompany": 2178,
      "ĠEnglish": 2179,
      "Ġconfess": 2180,
      "bey": 2181,
      "Ġbanishment": 2182,
      "Ġbrief": 2183,
      "Ġdeeds": 2184,
      "Ġsubjects": 2185,
      "Ġdeserved": 2186,
      "Ġbelieve": 2187,
      "Ġsomething": 2188,
      "Ġguilty": 2189,
      "Ġmorning": 2190,
      "lantagenet": 2191,
      "Ar": 2192,
      "DOR": 2193,
      "EW": 2194,
      "Mar": 2195,
      "TIUS": 2196,
      "XI": 2197,
      "gg": 2198,
      "ning": 2199,
      "ned": 2200,
      "nown": 2201,
      "ship": 2202,
      "ulet": 2203,
      "ĠXI": 2204,
      "Ġap": 2205,
      "inius": 2206,
      "Ġwis": 2207,
      "Ġwert": 2208,
      "rest": 2209,
      "Ġbro": 2210,
      "erle": 2211,
      "Ġdark": 2212,
      "Ġcle": 2213,
      "Ġcol": 2214,
      "Ġcase": 2215,
      "Ġlam": 2216,
      "Ġthither": 2217,
      "Ġhot": 2218,
      "Ġhide": 2219,
      "Ġpit": 2220,
      "ots": 2221,
      "Ġinno": 2222,
      "Ġreign": 2223,
      "Think": 2224,
      "iles": 2225,
      "host": 2226,
      "though": 2227,
      "ĠMerc": 2228,
      "oney": 2229,
      "ĠGaunt": 2230,
      "Ġcoming": 2231,
      "ĠLEW": 2232,
      "Ġloved": 2233,
      "ered": 2234,
      "Ġtrump": 2235,
      "Ġunc": 2236,
      "ĠSaint": 2237,
      "ĠWatch": 2238,
      "Ġbetween": 2239,
      "Ġprayers": 2240,
      "force": 2241,
      "LARTIUS": 2242,
      "claim": 2243,
      "Ġwomb": 2244,
      "Ġwoes": 2245,
      "atesby": 2246,
      "Ġpatient": 2247,
      "ĠNorthumberland": 2248,
      "ĠCapulet": 2249,
      "Ġgolden": 2250,
      "Ġawhile": 2251,
      "Ġmerry": 2252,
      "Ġvictory": 2253,
      "Ġbitter": 2254,
      "ĠLEWIS": 2255,
      "ĠWatchman": 2256,
      "Ab": 2257,
      "Most": 2258,
      "SAM": 2259,
      "TI": 2260,
      "bray": 2261,
      "ey": 2262,
      "king": 2263,
      "ls": 2264,
      "oor": 2265,
      "ying": 2266,
      "ĠThe": 2267,
      "Ġtor": 2268,
      "Ġtent": 2269,
      "hen": 2270,
      "Ġac": 2271,
      "Ġbook": 2272,
      "Ġbase": 2273,
      "Ġbirth": 2274,
      "Ġfam": 2275,
      "Ġob": 2276,
      "Ġdu": 2277,
      "Ġnay": 2278,
      "aring": 2279,
      "Ġoften": 2280,
      "owbray": 2281,
      "Ġins": 2282,
      "irm": 2283,
      "Ġemb": 2284,
      "Ġsteel": 2285,
      "ural": 2286,
      "Ġready": 2287,
      "Ġliber": 2288,
      "asons": 2289,
      "Ġsoft": 2290,
      "Ġnoise": 2291,
      "ĠEarl": 2292,
      "ĠMy": 2293,
      "umerle": 2294,
      "Ġthence": 2295,
      "ĠSt": 2296,
      "ĠSir": 2297,
      "cience": 2298,
      "Ġjest": 2299,
      "Ġenj": 2300,
      "ize": 2301,
      "Ġflesh": 2302,
      "Ġabs": 2303,
      "perate": 2304,
      "Ġbegin": 2305,
      "Ġpleasure": 2306,
      "Ġlaid": 2307,
      "Ġpride": 2308,
      "Ġwomen": 2309,
      "Ġglory": 2310,
      "Ġcompl": 2311,
      "Ġpresently": 2312,
      "Whom": 2313,
      "eeper": 2314,
      "Ġquickly": 2315,
      "PSON": 2316,
      "Ġclouds": 2317,
      "Ġwater": 2318,
      "Ġbreathe": 2319,
      "Ġpretty": 2320,
      "Ġladies": 2321,
      "Ġkinsman": 2322,
      "Ġchamber": 2323,
      "SAMPSON": 2324,
      "BU": 2325,
      "Citizens": 2326,
      "EX": 2327,
      "GON": 2328,
      "Peace": 2329,
      "Too": 2330,
      "Yea": 2331,
      "bury": 2332,
      "hn": 2333,
      "hind": 2334,
      "now": 2335,
      "ohn": 2336,
      "pir": 2337,
      "vest": 2338,
      "vail": 2339,
      "ĠN": 2340,
      "Ġut": 2341,
      "Ġign": 2342,
      "Ġta": 2343,
      "Ġsur": 2344,
      "Ġsus": 2345,
      "Ġsister": 2346,
      "Ġmid": 2347,
      "Ġmild": 2348,
      "ines": 2349,
      "Ġbur": 2350,
      "Ġfill": 2351,
      "Ġfought": 2352,
      "Ġcap": 2353,
      "Ġcross": 2354,
      "Ġpain": 2355,
      "Ġheld": 2356,
      "Ġgar": 2357,
      "stand": 2358,
      "Ġhaving": 2359,
      "etch": 2360,
      "eds": 2361,
      "utio": 2362,
      "Ġmeasure": 2363,
      "urch": 2364,
      "als": 2365,
      "Ġdepose": 2366,
      "ider": 2367,
      "Ġsole": 2368,
      "ĠMowbray": 2369,
      "icer": 2370,
      "ustom": 2371,
      "Ġwhence": 2372,
      "Ġconqu": 2373,
      "ĠHe": 2374,
      "ANTI": 2375,
      "aked": 2376,
      "Ġhadst": 2377,
      "Ġprof": 2378,
      "Ġproceed": 2379,
      "ection": 2380,
      "Ġbrothers": 2381,
      "Ġrich": 2382,
      "ations": 2383,
      "Ġadd": 2384,
      "Ġconscience": 2385,
      "Ġlonger": 2386,
      "Ġearly": 2387,
      "Ġappro": 2388,
      "Ġsmall": 2389,
      "ewis": 2390,
      "LEY": 2391,
      "Ġlawful": 2392,
      "Ġvalour": 2393,
      "Ġsecond": 2394,
      "Ġjoin": 2395,
      "Ġvirtue": 2396,
      "Ġtowards": 2397,
      "Ġdespair": 2398,
      "Ġcheeks": 2399,
      "Ġvenge": 2400,
      "Ġsummer": 2401,
      "Ġstrange": 2402,
      "Ġforbid": 2403,
      "ounter": 2404,
      "Ġsuccess": 2405,
      "ĠChrist": 2406,
      "BURY": 2407,
      "GONUS": 2408,
      "ANTIGONUS": 2409,
      ";'": 2410,
      "Bes": 2411,
      "En": 2412,
      "RAT": 2413,
      "Such": 2414,
      "ac": 2415,
      "but": 2416,
      "ging": 2417,
      "oint": 2418,
      "she": 2419,
      "sper": 2420,
      "ures": 2421,
      "ude": 2422,
      "will": 2423,
      "Ġest": 2424,
      "Ġay": 2425,
      "Ġaid": 2426,
      "Ġaction": 2427,
      "Ġwon": 2428,
      "Ġwoo": 2429,
      "Ġwail": 2430,
      "rew": 2431,
      "Ġbroke": 2432,
      "Ġfat": 2433,
      "Ġfond": 2434,
      "Ġfaint": 2435,
      "Ġobey": 2436,
      "Ġcreat": 2437,
      "Ġcitizens": 2438,
      "Ġlen": 2439,
      "vey": 2440,
      "Ġinj": 2441,
      "Ġform": 2442,
      "Ġstor": 2443,
      "Ġstop": 2444,
      "urs": 2445,
      "Ġyourselves": 2446,
      "Ġref": 2447,
      "cks": 2448,
      "Ġdog": 2449,
      "ands": 2450,
      "Ġbutcher": 2451,
      "Ġourselves": 2452,
      "Ġspo": 2453,
      "Ġshows": 2454,
      "ĠLewis": 2455,
      "Ġthereof": 2456,
      "Ġrough": 2457,
      "ally": 2458,
      "Ġspeaks": 2459,
      "Ġdesperate": 2460,
      "Ġextre": 2461,
      "Ġdeadly": 2462,
      "Ġarmy": 2463,
      "Ġadv": 2464,
      "Ġservant": 2465,
      "Ġremain": 2466,
      "Ġappear": 2467,
      "Ġstruck": 2468,
      "Ġrespect": 2469,
      "Shepherd": 2470,
      "Ġsoldier": 2471,
      "Ġwinter": 2472,
      "Ġpromise": 2473,
      "ĠVolsces": 2474,
      "Ġvisit": 2475,
      "Ġpossess": 2476,
      "Ġdishonour": 2477,
      "Ġexecution": 2478,
      "Sweet": 2479,
      "Ġwidow": 2480,
      "RATCLIFF": 2481,
      "BIS": 2482,
      "Doth": 2483,
      "HOP": 2484,
      "TAN": 2485,
      "iance": 2486,
      "ked": 2487,
      "med": 2488,
      "mia": 2489,
      "ohe": 2490,
      "shi": 2491,
      "Ġorder": 2492,
      "here": 2493,
      "Ġsour": 2494,
      "Ġmut": 2495,
      "Ġmusic": 2496,
      "Ġbastard": 2497,
      "ern": 2498,
      "ities": 2499,
      "Ġdance": 2500,
      "Ġcorse": 2501,
      "Ġlack": 2502,
      "Ġthreat": 2503,
      "Ġpu": 2504,
      "ĠIf": 2505,
      "inger": 2506,
      "omer": 2507,
      "Ġbend": 2508,
      "Ġind": 2509,
      "utland": 2510,
      "Ġeas": 2511,
      "alth": 2512,
      "Ġdeg": 2513,
      "Ġdem": 2514,
      "ames": 2515,
      "vern": 2516,
      "ease": 2517,
      "ĠRutland": 2518,
      "Ġsever": 2519,
      "arted": 2520,
      "Ġspent": 2521,
      "Ġvain": 2522,
      "ular": 2523,
      "Ġknew": 2524,
      "Ġknees": 2525,
      "Ġgoodly": 2526,
      "Ġwouldst": 2527,
      "Ġran": 2528,
      "Ġgrand": 2529,
      "Ġshed": 2530,
      "Ġplant": 2531,
      "Within": 2532,
      "Ġfriar": 2533,
      "Ġfoes": 2534,
      "ĠPr": 2535,
      "Ġrob": 2536,
      "Ġroot": 2537,
      "Ġflowers": 2538,
      "Ġslave": 2539,
      "Ġoffice": 2540,
      "Ġexc": 2541,
      "Ġabro": 2542,
      "Ġparty": 2543,
      "Ġhonours": 2544,
      "Ġgreater": 2545,
      "ĠJohn": 2546,
      "osition": 2547,
      "Ġguest": 2548,
      "Ġguess": 2549,
      "Ġwitness": 2550,
      "Ġaccount": 2551,
      "rupt": 2552,
      "Ġchance": 2553,
      "Ġswords": 2554,
      "Ġsecret": 2555,
      "Ġvirtuous": 2556,
      "Ġtemp": 2557,
      "Ġletters": 2558,
      "Ġcapt": 2559,
      "Ġdispatch": 2560,
      "Ġwalls": 2561,
      "Ġwretched": 2562,
      "BALT": 2563,
      "TYBALT": 2564,
      "Ġtriumph": 2565,
      "ĠMercutio": 2566,
      "Ġenjoy": 2567,
      "BISHOP": 2568,
      "TANLEY": 2569,
      "ohemia": 2570,
      "!--": 2571,
      ":'": 2572,
      "Br": 2573,
      "DIT": 2574,
      "KEN": 2575,
      "Lo": 2576,
      "Me": 2577,
      "Mine": 2578,
      "PER": 2579,
      "Su": 2580,
      "While": 2581,
      "awn": 2582,
      "een": 2583,
      "eem": 2584,
      "fall": 2585,
      "ians": 2586,
      "mon": 2587,
      "mity": 2588,
      "ror": 2589,
      "sc": 2590,
      "ts": 2591,
      "you": 2592,
      "zen": 2593,
      "Ġid": 2594,
      "ĠThis": 2595,
      "head": 2596,
      "Ġshi": 2597,
      "Ġmorrow": 2598,
      "Ġmount": 2599,
      "Ġmourn": 2600,
      "ining": 2601,
      "read": 2602,
      "Ġbones": 2603,
      "orth": 2604,
      "Ġfru": 2605,
      "ited": 2606,
      "Ġdry": 2607,
      "Ġcertain": 2608,
      "omas": 2609,
      "ominius": 2610,
      "Ġgall": 2611,
      "anley": 2612,
      "att": 2613,
      "ating": 2614,
      "Ġbeast": 2615,
      "Ġbehind": 2616,
      "Ġhap": 2617,
      "Ġforce": 2618,
      "Ġforward": 2619,
      "Ġforsw": 2620,
      "Ġweary": 2621,
      "Ġstain": 2622,
      "ords": 2623,
      "Ġrevere": 2624,
      "idings": 2625,
      "ask": 2626,
      "Ġaside": 2627,
      "Ġdoing": 2628,
      "ĠRoman": 2629,
      "Ġseal": 2630,
      "Ġours": 2631,
      "ĠCatesby": 2632,
      "ĠCominius": 2633,
      "Ġfavour": 2634,
      "Ġspeech": 2635,
      "Ġang": 2636,
      "ility": 2637,
      "Ġneck": 2638,
      "hop": 2639,
      "asters": 2640,
      "Ġblame": 2641,
      "Ġwhether": 2642,
      "arent": 2643,
      "Ġamb": 2644,
      "Ġtru": 2645,
      "ĠBohemia": 2646,
      "Ġunf": 2647,
      "ĠWill": 2648,
      "cians": 2649,
      "Ġsaf": 2650,
      "Ġdisg": 2651,
      "Ġprosper": 2652,
      "feit": 2653,
      "ĠPlantagenet": 2654,
      "Ġoffer": 2655,
      "Ġquiet": 2656,
      "ĠAumerle": 2657,
      "Ġhonourable": 2658,
      "Ġprecious": 2659,
      "ĠMars": 2660,
      "ully": 2661,
      "Ġbears": 2662,
      "Ġmoon": 2663,
      "Ġperform": 2664,
      "ĠKeeper": 2665,
      "Ġguard": 2666,
      "Ġtreason": 2667,
      "ledge": 2668,
      "Ġglad": 2669,
      "Ġlands": 2670,
      "Ġsenate": 2671,
      "ĠCorioli": 2672,
      "BRAKEN": 2673,
      "Ġprisoner": 2674,
      "Unto": 2675,
      "Ġbecause": 2676,
      "Ġencounter": 2677,
      "Ġsatisfied": 2678,
      "Ġvengeance": 2679,
      "DITA": 2680,
      "PERDITA": 2681,
      "BRAKENBURY": 2682,
      ":--": 2683,
      "Dis": 2684,
      "DER": 2685,
      "EL": 2686,
      "Either": 2687,
      "Edward": 2688,
      "GOR": 2689,
      "Int": 2690,
      "Out": 2691,
      "Richard": 2692,
      "aves": 2693,
      "aff": 2694,
      "acher": 2695,
      "ban": 2696,
      "cy": 2697,
      "dle": 2698,
      "gue": 2699,
      "gment": 2700,
      "ible": 2701,
      "mble": 2702,
      "rous": 2703,
      "ua": 2704,
      "vious": 2705,
      "wixt": 2706,
      "ounce": 2707,
      "Ġsort": 2708,
      "Ġmed": 2709,
      "Ġmod": 2710,
      "Ġmoney": 2711,
      "inous": 2712,
      "inces": 2713,
      "Ġwed": 2714,
      "Ġwings": 2715,
      "Ġwild": 2716,
      "orious": 2717,
      "Ġfive": 2718,
      "itol": 2719,
      "Ġodd": 2720,
      "Ġdeter": 2721,
      "Ġcorn": 2722,
      "Ġcried": 2723,
      "Ġlow": 2724,
      "Ġlau": 2725,
      "enes": 2726,
      "enen": 2727,
      "Ġthro": 2728,
      "Ġpen": 2729,
      "ceit": 2730,
      "Ġnote": 2731,
      "Ġev": 2732,
      "Ġeag": 2733,
      "Ġeff": 2734,
      "Ġease": 2735,
      "Ġstood": 2736,
      "Ġdeb": 2737,
      "roy": 2738,
      "Ġloyal": 2739,
      "ĠMO": 2740,
      "icious": 2741,
      "Ġblind": 2742,
      "Ġknight": 2743,
      "ieu": 2744,
      "Ġtrouble": 2745,
      "ĠSomer": 2746,
      "Ġrise": 2747,
      "ĠWhy": 2748,
      "unk": 2749,
      "Ġworst": 2750,
      "Ġmayor": 2751,
      "ursed": 2752,
      "Ġalmost": 2753,
      "Off": 2754,
      "Ġflower": 2755,
      "Ġslander": 2756,
      "Ġexile": 2757,
      "Ġwherefore": 2758,
      "ways": 2759,
      "Ġabove": 2760,
      "Ġrid": 2761,
      "Ġleast": 2762,
      "Ġclaim": 2763,
      "Ġprepare": 2764,
      "Ġprevail": 2765,
      "Ġmoved": 2766,
      "Ġtongues": 2767,
      "ontent": 2768,
      "Ġcontr": 2769,
      "Stand": 2770,
      "Ġkindred": 2771,
      "Ġtraitors": 2772,
      "Ġburied": 2773,
      "Ġcounter": 2774,
      "ealous": 2775,
      "Ġbride": 2776,
      "Ġhumble": 2777,
      "Ġdreams": 2778,
      "Ġdeserve": 2779,
      "Ġmonth": 2780,
      "ĠCapitol": 2781,
      "Ġbrows": 2782,
      "GREGOR": 2783,
      "True": 2784,
      "Ġscarce": 2785,
      "Ġignor": 2786,
      "ointed": 2787,
      "ĠPrince": 2788,
      "Ġabroad": 2789,
      "DERBY": 2790,
      "Ġdeterm": 2791,
      "enenius": 2792,
      "GREGORY": 2793,
      "Bl": 2794,
      "Bid": 2795,
      "Con": 2796,
      "FORD": 2797,
      "MON": 2798,
      "Ne": 2799,
      "OX": 2800,
      "Poor": 2801,
      "RICH": 2802,
      "SOM": 2803,
      "Tut": 2804,
      "VAL": 2805,
      "Whilst": 2806,
      "aid": 2807,
      "ault": 2808,
      "acle": 2809,
      "bly": 2810,
      "born": 2811,
      "fully": 2812,
      "house": 2813,
      "iest": 2814,
      "nat": 2815,
      "ners": 2816,
      "oved": 2817,
      "pin": 2818,
      "rum": 2819,
      "roud": 2820,
      "that": 2821,
      "ued": 2822,
      "vish": 2823,
      "ze": 2824,
      "Ġtidings": 2825,
      "Ġavo": 2826,
      "Ġmatch": 2827,
      "Ġwont": 2828,
      "Ġba": 2829,
      "Ġbig": 2830,
      "Ġbird": 2831,
      "Ġfe": 2832,
      "Ġfra": 2833,
      "Ġfetch": 2834,
      "ithee": 2835,
      "Ġocc": 2836,
      "Ġdust": 2837,
      "Ġdrown": 2838,
      "Ġlust": 2839,
      "essed": 2840,
      "Ġhund": 2841,
      "Ġhung": 2842,
      "ony": 2843,
      "Ġpi": 2844,
      "Ġpal": 2845,
      "vel": 2846,
      "ang": 2847,
      "Ġhair": 2848,
      "ety": 2849,
      "Ġweeds": 2850,
      "Ġstab": 2851,
      "Ġstars": 2852,
      "Ġshake": 2853,
      "Ġwilling": 2854,
      "ERIA": 2855,
      "Ġspring": 2856,
      "Ġneigh": 2857,
      "Ġvie": 2858,
      "ĠMusic": 2859,
      "ended": 2860,
      "Ġkneel": 2861,
      "Ġprithee": 2862,
      "ĠGrey": 2863,
      "Ġconvey": 2864,
      "Ġamong": 2865,
      "Ġswift": 2866,
      "ume": 2867,
      "Ġunl": 2868,
      "Ġgovern": 2869,
      "Ġrot": 2870,
      "Ġshepherd": 2871,
      "Ġmayst": 2872,
      "Ġenvy": 2873,
      "Ġdism": 2874,
      "Ġfright": 2875,
      "ector": 2876,
      "Ġquoth": 2877,
      "Ġprevent": 2878,
      "aced": 2879,
      "Ġothers": 2880,
      "Ġkept": 2881,
      "ainted": 2882,
      "Ġtrial": 2883,
      "Ġwhite": 2884,
      "Ġbanished": 2885,
      "Ġsmo": 2886,
      "Ġresign": 2887,
      "Ġwoful": 2888,
      "rench": 2889,
      "Ġmiser": 2890,
      "Ġneeds": 2891,
      "ocks": 2892,
      "Ġwrongs": 2893,
      "Ġchoose": 2894,
      "Ġchurch": 2895,
      "Made": 2896,
      "ERSET": 2897,
      "Ġcrue": 2898,
      "Ġjoint": 2899,
      "Ġnobles": 2900,
      "ĠThomas": 2901,
      "Ġbeggar": 2902,
      "Ġtyrant": 2903,
      "Ġcastle": 2904,
      "Ġprophe": 2905,
      "Ġmalice": 2906,
      "Ġreceived": 2907,
      "Ġviolent": 2908,
      "Ġfiery": 2909,
      "Ġwisdom": 2910,
      "Ġdeposed": 2911,
      "Ġfatal": 2912,
      "Ġleng": 2913,
      "ursday": 2914,
      "Brother": 2915,
      "Ġangry": 2916,
      "ĠSomerset": 2917,
      "MOND": 2918,
      "OXFORD": 2919,
      "RICHMOND": 2920,
      "SOMERSET": 2921,
      "VALERIA": 2922,
      "Ġhundred": 2923,
      "Ġview": 2924,
      "BUS": 2925,
      "Cousin": 2926,
      "Des": 2927,
      "FL": 2928,
      "HY": 2929,
      "Hear": 2930,
      "LIUS": 2931,
      "MAMIL": 2932,
      "Methinks": 2933,
      "Pl": 2934,
      "PETER": 2935,
      "STANLEY": 2936,
      "Tybalt": 2937,
      "Under": 2938,
      "WBRA": 2939,
      "Yes": 2940,
      "ZEL": 2941,
      "den": 2942,
      "dge": 2943,
      "gr": 2944,
      "ior": 2945,
      "mn": 2946,
      "mp": 2947,
      "ne": 2948,
      "oly": 2949,
      "rate": 2950,
      "ub": 2951,
      "ual": 2952,
      "which": 2953,
      "ĠNow": 2954,
      "Ġtast": 2955,
      "Ġsim": 2956,
      "Ġsaint": 2957,
      "Ġsits": 2958,
      "Ġmethinks": 2959,
      "Ġbite": 2960,
      "Ġfres": 2961,
      "llo": 2962,
      "Ġdri": 2963,
      "Ġdue": 2964,
      "Ġdull": 2965,
      "Ġdwell": 2966,
      "Ġdouble": 2967,
      "Ġcre": 2968,
      "Ġcir": 2969,
      "Ġlest": 2970,
      "Ġnumber": 2971,
      "arch": 2972,
      "Ġhol": 2973,
      "Ġpet": 2974,
      "Ġpil": 2975,
      "Ġpun": 2976,
      "omp": 2977,
      "omes": 2978,
      "Ġgrown": 2979,
      "Ġgage": 2980,
      "anch": 2981,
      "stant": 2982,
      "Ġbelly": 2983,
      "lect": 2984,
      "iron": 2985,
      "Ġsto": 2986,
      "Ġsteed": 2987,
      "Ġstones": 2988,
      "Ġreasons": 2989,
      "Ġdeal": 2990,
      "hiles": 2991,
      "iful": 2992,
      "Ġfares": 2993,
      "Ġsport": 2994,
      "Ġanger": 2995,
      "Ġvile": 2996,
      "ĠMant": 2997,
      "ĠMenenius": 2998,
      "Ġshri": 2999,
      "Ġherself": 3000,
      "Ġblow": 3001,
      "Ġconcl": 3002,
      "ĠHarry": 3003,
      "Ġkingly": 3004,
      "ĠBona": 3005,
      "Ġunw": 3006,
      "Ġunnat": 3007,
      "allow": 3008,
      "Ġknowledge": 3009,
      "Ġjealous": 3010,
      "OMAS": 3011,
      "ounds": 3012,
      "imely": 3013,
      "Ġplot": 3014,
      "Ġplague": 3015,
      "osed": 3016,
      "Ġrock": 3017,
      "Ġhearing": 3018,
      "Ġwherein": 3019,
      "ORIZEL": 3020,
      "ĠAnt": 3021,
      "Ġleaves": 3022,
      "ape": 3023,
      "Ġchief": 3024,
      "Ġlordship": 3025,
      "Ġpleas": 3026,
      "there": 3027,
      "Ġtreacher": 3028,
      "Ġthrust": 3029,
      "ethought": 3030,
      "THOMAS": 3031,
      "Ġpursu": 3032,
      "Ġfollowers": 3033,
      "Ġcover": 3034,
      "Ġbids": 3035,
      "ĠServant": 3036,
      "ounty": 3037,
      "Ġbright": 3038,
      "Ġdevise": 3039,
      "Ġdrink": 3040,
      "Ġruin": 3041,
      "Ġrude": 3042,
      "Alack": 3043,
      "place": 3044,
      "Ġsentence": 3045,
      "Ġgreet": 3046,
      "MOPS": 3047,
      "Ġcondem": 3048,
      "ĠThursday": 3049,
      "rann": 3050,
      "Ġwretch": 3051,
      "Ġhurt": 3052,
      "ĠCaius": 3053,
      "Ġforgot": 3054,
      "Ġliberty": 3055,
      "EXETER": 3056,
      "Ġutter": 3057,
      "Ġconquer": 3058,
      "ĠChristian": 3059,
      "Ġexcuse": 3060,
      "Ġfruit": 3061,
      "Ġtruly": 3062,
      "ĠMOWBRA": 3063,
      "ĠMusician": 3064,
      "BUSHY": 3065,
      "FLORIZEL": 3066,
      "MAMILLIUS": 3067,
      "ĠMantua": 3068,
      "MOPSA": 3069,
      "ĠMOWBRAY": 3070,
      "'?": 3071,
      "Am": 3072,
      "Bet": 3073,
      "CY": 3074,
      "Could": 3075,
      "Death": 3076,
      "Ed": 3077,
      "Fa": 3078,
      "Fear": 3079,
      "GE": 3080,
      "Hence": 3081,
      "Put": 3082,
      "Sc": 3083,
      "Turn": 3084,
      "ding": 3085,
      "draw": 3086,
      "oss": 3087,
      "pes": 3088,
      "sic": 3089,
      "uct": 3090,
      "your": 3091,
      "ĠThou": 3092,
      "Ġted": 3093,
      "Ġtry": 3094,
      "Ġtaken": 3095,
      "hearted": 3096,
      "Ġaught": 3097,
      "Ġsho": 3098,
      "Ġmasters": 3099,
      "Ġwhilst": 3100,
      "Ġwives": 3101,
      "rer": 3102,
      "rent": 3103,
      "Ġben": 3104,
      "Ġbark": 3105,
      "orous": 3106,
      "Ġfee": 3107,
      "Ġfew": 3108,
      "Ġfury": 3109,
      "ites": 3110,
      "itude": 3111,
      "Ġcalm": 3112,
      "Ġcries": 3113,
      "Ġcustom": 3114,
      "Ġlist": 3115,
      "eness": 3116,
      "Ġtomb": 3117,
      "onounce": 3118,
      "Ġyea": 3119,
      "Ġpack": 3120,
      "Ġpawn": 3121,
      "Ġhealth": 3122,
      "othe": 3123,
      "Ġgir": 3124,
      "Ġgent": 3125,
      "ane": 3126,
      "cend": 3127,
      "leep": 3128,
      "Ġused": 3129,
      "Ġstore": 3130,
      "Ġsteal": 3131,
      "Ġreward": 3132,
      "Ġlived": 3133,
      "rand": 3134,
      "Ġdec": 3135,
      "Ġdeceive": 3136,
      "ident": 3137,
      "ash": 3138,
      "amp": 3139,
      "estion": 3140,
      "Three": 3141,
      "ERCY": 3142,
      "Ġspake": 3143,
      "ilia": 3144,
      "Ġvan": 3145,
      "ĠMessenger": 3146,
      "Ġshut": 3147,
      "rows": 3148,
      "Ġblessed": 3149,
      "olix": 3150,
      "Ġconj": 3151,
      "Ġhatred": 3152,
      "Ġamen": 3153,
      "erence": 3154,
      "iece": 3155,
      "Ġtroth": 3156,
      "Ġunk": 3157,
      "ĠYour": 3158,
      "cian": 3159,
      "hysic": 3160,
      "eless": 3161,
      "Ġenvious": 3162,
      "Without": 3163,
      "Ġalive": 3164,
      "Ġwhole": 3165,
      "ages": 3166,
      "ĠPERCY": 3167,
      "Ġdesign": 3168,
      "ĠAl": 3169,
      "aper": 3170,
      "Ġbetwixt": 3171,
      "Ġcommend": 3172,
      "Ġcalls": 3173,
      "Ġadieu": 3174,
      "Ġwrath": 3175,
      "iteous": 3176,
      "Ġrepent": 3177,
      "Ġlabour": 3178,
      "Ġwhither": 3179,
      "Ġlean": 3180,
      "ASAR": 3181,
      "Ġtremb": 3182,
      "THASAR": 3183,
      "Ġchanged": 3184,
      "Ġfellows": 3185,
      "Ġcares": 3186,
      "Ġseems": 3187,
      "Ġwanton": 3188,
      "Ġchair": 3189,
      "Show": 3190,
      "ARCH": 3191,
      "Ġaffect": 3192,
      "Ġsenators": 3193,
      "Ġfaults": 3194,
      "ĠRivers": 3195,
      "Ġgreen": 3196,
      "Two": 3197,
      "Ġmaids": 3198,
      "Ġsilver": 3199,
      "Comm": 3200,
      "Ġcheek": 3201,
      "Ġempt": 3202,
      "BALTHASAR": 3203,
      "Ġtyrann": 3204,
      "Ġjudgment": 3205,
      "Ġthrive": 3206,
      "Ġbabe": 3207,
      "Ġsacred": 3208,
      "Ġsighs": 3209,
      "Ġshadow": 3210,
      "Ġprivate": 3211,
      "Ġtrumpets": 3212,
      "ĠStanley": 3213,
      "orthy": 3214,
      "Ġlaugh": 3215,
      "Ġunnatural": 3216,
      "Ġtedious": 3217,
      "olixenes": 3218,
      "'re": 3219,
      "AEd": 3220,
      "Bel": 3221,
      "CAS": 3222,
      "FOL": 3223,
      "Great": 3224,
      "Ind": 3225,
      "Never": 3226,
      "OS": 3227,
      "Once": 3228,
      "Post": 3229,
      "Ret": 3230,
      "after": 3231,
      "cha": 3232,
      "cing": 3233,
      "ek": 3234,
      "fl": 3235,
      "oin": 3236,
      "pet": 3237,
      "rust": 3238,
      "sa": 3239,
      "sing": 3240,
      "uff": 3241,
      "under": 3242,
      "xeter": 3243,
      "yr": 3244,
      "Ġtort": 3245,
      "Ġteach": 3246,
      "Ġaf": 3247,
      "Ġauth": 3248,
      "Ġsan": 3249,
      "Ġwot": 3250,
      "Ġwol": 3251,
      "Ġwither": 3252,
      "Ġwalk": 3253,
      "Ġwander": 3254,
      "reed": 3255,
      "ories": 3256,
      "ises": 3257,
      "isure": 3258,
      "ishop": 3259,
      "erona": 3260,
      "Ġcal": 3261,
      "Ġcell": 3262,
      "Ġcup": 3263,
      "Ġlar": 3264,
      "ene": 3265,
      "Ġnine": 3266,
      "Ġnaked": 3267,
      "Ġyonder": 3268,
      "Ġpure": 3269,
      "Ġphysic": 3270,
      "Ġpaper": 3271,
      "Ġpiteous": 3272,
      "Ġoft": 3273,
      "Ġgain": 3274,
      "Ġgift": 3275,
      "Ġghost": 3276,
      "stance": 3277,
      "ated": 3278,
      "semb": 3279,
      "Ġincl": 3280,
      "Ġinform": 3281,
      "ldom": 3282,
      "iment": 3283,
      "ourish": 3284,
      "Ġformer": 3285,
      "Ġweap": 3286,
      "Ġeat": 3287,
      "Ġeld": 3288,
      "Ġeast": 3289,
      "Ġstep": 3290,
      "Ġrealm": 3291,
      "Ġrenown": 3292,
      "Ġliest": 3293,
      "rah": 3294,
      "Ġdew": 3295,
      "Ġdeare": 3296,
      "eave": 3297,
      "ĠROS": 3298,
      "Ġsep": 3299,
      "Ġseas": 3300,
      "Ġseven": 3301,
      "Ġseize": 3302,
      "ards": 3303,
      "Ġspend": 3304,
      "Ġanon": 3305,
      "ellig": 3306,
      "Ġnecess": 3307,
      "Ġvant": 3308,
      "Ġvault": 3309,
      "Ġblest": 3310,
      "Ġmanner": 3311,
      "Ġpronounce": 3312,
      "ĠHow": 3313,
      "Ġcomest": 3314,
      "ĠLet": 3315,
      "Ġtherein": 3316,
      "Myself": 3317,
      "umble": 3318,
      "Ġgoing": 3319,
      "Ġoracle": 3320,
      "Ġbrook": 3321,
      "ĠWe": 3322,
      "ĠWhen": 3323,
      "ope": 3324,
      "elp": 3325,
      "Ġsail": 3326,
      "Ġdiss": 3327,
      "Ġprov": 3328,
      "Ġproclaim": 3329,
      "oldier": 3330,
      "Ġalas": 3331,
      "Ġalways": 3332,
      "Ġheav": 3333,
      "ĠPolixenes": 3334,
      "eeth": 3335,
      "Ġhonesty": 3336,
      "Ġdesert": 3337,
      "Ġslay": 3338,
      "Ġquite": 3339,
      "Wherein": 3340,
      "ĠAn": 3341,
      "Ġprey": 3342,
      "aughters": 3343,
      "Ġuntil": 3344,
      "Ġuntimely": 3345,
      "Ġhollow": 3346,
      "Ġbegins": 3347,
      "Ġearn": 3348,
      "Ġimag": 3349,
      "Ġleisure": 3350,
      "Ġtread": 3351,
      "Ġcourage": 3352,
      "Ġentertain": 3353,
      "Ġsmile": 3354,
      "ission": 3355,
      "orset": 3356,
      "Ġglass": 3357,
      "Ġglorious": 3358,
      "Ġjoys": 3359,
      "Ġjoyful": 3360,
      "Ġbodies": 3361,
      "Ġcharity": 3362,
      "Ġpassage": 3363,
      "NORFOL": 3364,
      "Ġchast": 3365,
      "Ġfools": 3366,
      "Ġfoolish": 3367,
      "ploy": 3368,
      "Ġinfect": 3369,
      "Ġdenied": 3370,
      "Ġcrack": 3371,
      "Ġcursed": 3372,
      "Ġcurses": 3373,
      "Twas": 3374,
      "Ġmarket": 3375,
      "Ġcondition": 3376,
      "Ġborne": 3377,
      "Ġinstrum": 3378,
      "Ġdivine": 3379,
      "Ġminister": 3380,
      "Ġvenom": 3381,
      "Ġgriev": 3382,
      "Ġdelay": 3383,
      "Ġdelight": 3384,
      "Having": 3385,
      "Ġundert": 3386,
      "Ġjudge": 3387,
      "Ġpraise": 3388,
      "pollo": 3389,
      "Ġdrums": 3390,
      "Art": 3391,
      "DORCAS": 3392,
      "Ġcolours": 3393,
      "Ġlamb": 3394,
      "Ġinnocent": 3395,
      "Ġembrace": 3396,
      "Ġsolemn": 3397,
      "Ġstorm": 3398,
      "shire": 3399,
      "Ġthreaten": 3400,
      "Ġeasy": 3401,
      "Ġdegree": 3402,
      "Ġseveral": 3403,
      "Ġsafety": 3404,
      "Into": 3405,
      "Ġthroat": 3406,
      "Ġeffect": 3407,
      "pinion": 3408,
      "Ġrotten": 3409,
      "Ġsmooth": 3410,
      "Ġmiserable": 3411,
      "Ġcruel": 3412,
      "Ġtaste": 3413,
      "Ġcirc": 3414,
      "Faith": 3415,
      "Indeed": 3416,
      "Ġauthor": 3417,
      "Ġsanct": 3418,
      "ĠROSS": 3419,
      "NORFOLK": 3420,
      "?'": 3421,
      "?--": 3422,
      "App": 3423,
      "After": 3424,
      "Bear": 3425,
      "Boy": 3426,
      "Fie": 3427,
      "GH": 3428,
      "Ghost": 3429,
      "Hast": 3430,
      "Hark": 3431,
      "Res": 3432,
      "RRE": 3433,
      "Roman": 3434,
      "Sha": 3435,
      "SET": 3436,
      "aol": 3437,
      "aily": 3438,
      "dy": 3439,
      "dis": 3440,
      "der": 3441,
      "fret": 3442,
      "his": 3443,
      "him": 3444,
      "oe": 3445,
      "oot": 3446,
      "pic": 3447,
      "sha": 3448,
      "uary": 3449,
      "yond": 3450,
      "Ġes": 3451,
      "Ġed": 3452,
      "Ġver": 3453,
      "Ġtide": 3454,
      "Ġaim": 3455,
      "Ġaunt": 3456,
      "Ġsix": 3457,
      "Ġscept": 3458,
      "Ġmile": 3459,
      "Ġmurderer": 3460,
      "Ġwre": 3461,
      "Ġwent": 3462,
      "Ġwine": 3463,
      "rease": 3464,
      "reland": 3465,
      "Ġball": 3466,
      "Ġbury": 3467,
      "ising": 3468,
      "Ġfame": 3469,
      "Ġfeed": 3470,
      "Ġfinger": 3471,
      "erve": 3472,
      "itus": 3473,
      "Ġowe": 3474,
      "Ġdag": 3475,
      "Ġdied": 3476,
      "Ġdaily": 3477,
      "Ġcure": 3478,
      "Ġlan": 3479,
      "Ġline": 3480,
      "Ġnames": 3481,
      "Ġhost": 3482,
      "Ġhunt": 3483,
      "ĠIt": 3484,
      "ĠIreland": 3485,
      "omans": 3486,
      "omfret": 3487,
      "Ġgross": 3488,
      "Ġgaz": 3489,
      "atcl": 3490,
      "sequ": 3491,
      "Ġbew": 3492,
      "lease": 3493,
      "Ġequ": 3494,
      "rib": 3495,
      "rious": 3496,
      "ricians": 3497,
      "Ġstar": 3498,
      "aline": 3499,
      "Ġrevol": 3500,
      "Ġlip": 3501,
      "asion": 3502,
      "ĠRos": 3503,
      "ĠRomans": 3504,
      "arts": 3505,
      "Ġallow": 3506,
      "arden": 3507,
      "ĠCons": 3508,
      "Ġfaire": 3509,
      "Ġfaces": 3510,
      "Ġspite": 3511,
      "ĠMay": 3512,
      "Ġblush": 3513,
      "Ġprinces": 3514,
      "ĠGo": 3515,
      "Ġtheirs": 3516,
      "outs": 3517,
      "ĠBl": 3518,
      "Ġunb": 3519,
      "Ġhereafter": 3520,
      "Ġsheep": 3521,
      "ortion": 3522,
      "elt": 3523,
      "Ġseeing": 3524,
      "Ġenmity": 3525,
      "Ġdisd": 3526,
      "Ġfolly": 3527,
      "ĠPomfret": 3528,
      "Ġflight": 3529,
      "Ġoffence": 3530,
      "Ġexpect": 3531,
      "Ġbreed": 3532,
      "ĠVerona": 3533,
      "Ġquench": 3534,
      "Ġparts": 3535,
      "Ġtwice": 3536,
      "Ġarmour": 3537,
      "Ġcommit": 3538,
      "Ġrash": 3539,
      "Ġscene": 3540,
      "Ġpress": 3541,
      "lesome": 3542,
      "Ġadvers": 3543,
      "Ġpeers": 3544,
      "ĠJove": 3545,
      "liament": 3546,
      "Ġperj": 3547,
      "Ġperforce": 3548,
      "Ġprayer": 3549,
      "Ġremains": 3550,
      "Ġwhis": 3551,
      "Ġlegs": 3552,
      "Ġleads": 3553,
      "Ġcounty": 3554,
      "Still": 3555,
      "Ġpriest": 3556,
      "Ġprize": 3557,
      "Ġkeeps": 3558,
      "Ġsmiles": 3559,
      "Ġwits": 3560,
      "Ġcompass": 3561,
      "Ġpurcha": 3562,
      "Ġaccus": 3563,
      "Ġfollows": 3564,
      "Ġmisery": 3565,
      "ruction": 3566,
      "Ġhappiness": 3567,
      "airs": 3568,
      "Clarence": 3569,
      "Ġhumour": 3570,
      "Ġdrawn": 3571,
      "Ġwounded": 3572,
      "Ġafford": 3573,
      "Ġaffairs": 3574,
      "Ġdares": 3575,
      "Ġgives": 3576,
      "Ġgiving": 3577,
      "Ġboar": 3578,
      "Ġunderstand": 3579,
      "Ġcrave": 3580,
      "Ġpromised": 3581,
      "Ġgranted": 3582,
      "Ġconduct": 3583,
      "Ġshortly": 3584,
      "Ġdisposition": 3585,
      "Ġchoice": 3586,
      "Ġincrease": 3587,
      "Ġparliament": 3588,
      "Ġemploy": 3589,
      "TYRRE": 3590,
      "Ġdamned": 3591,
      "Ġdirect": 3592,
      "Ġvex": 3593,
      "GREEN": 3594,
      "Ġprotector": 3595,
      "Ġbleed": 3596,
      "Ġdrop": 3597,
      "Ġgroan": 3598,
      "Ġdreadful": 3599,
      "Ġurged": 3600,
      "DORSET": 3601,
      "Ġbroken": 3602,
      "Ġabsence": 3603,
      "Ġburthen": 3604,
      "Ġgarland": 3605,
      "Ġcreature": 3606,
      "Ġdemand": 3607,
      "Ġidle": 3608,
      "ĠMarshal": 3609,
      "Ġcontrary": 3610,
      "Ġempty": 3611,
      "AEdile": 3612,
      "Ġvantage": 3613,
      "picion": 3614,
      "Ġsceptre": 3615,
      "atcliff": 3616,
      "ĠConspir": 3617,
      "TYRREL": 3618,
      "Came": 3619,
      "Cons": 3620,
      "Coriol": 3621,
      "Gentle": 3622,
      "Makes": 3623,
      "Pre": 3624,
      "Pardon": 3625,
      "Rep": 3626,
      "Vols": 3627,
      "aul": 3628,
      "app": 3629,
      "bb": 3630,
      "bours": 3631,
      "eld": 3632,
      "ead": 3633,
      "eous": 3634,
      "fell": 3635,
      "father": 3636,
      "fect": 3637,
      "faced": 3638,
      "gl": 3639,
      "hore": 3640,
      "iam": 3641,
      "iate": 3642,
      "lar": 3643,
      "more": 3644,
      "ping": 3645,
      "rison": 3646,
      "ser": 3647,
      "uce": 3648,
      "wise": 3649,
      "wife": 3650,
      "Ġteeth": 3651,
      "Ġsal": 3652,
      "Ġsins": 3653,
      "Ġmult": 3654,
      "Ġmessenger": 3655,
      "iny": 3656,
      "Ġwond": 3657,
      "rees": 3658,
      "half": 3659,
      "Ġbot": 3660,
      "Ġbare": 3661,
      "Ġbond": 3662,
      "Ġbud": 3663,
      "isbury": 3664,
      "Ġfine": 3665,
      "Ġfie": 3666,
      "Ġfirm": 3667,
      "erby": 3668,
      "itation": 3669,
      "Ġow": 3670,
      "Ġobed": 3671,
      "Ġopinion": 3672,
      "Ġdim": 3673,
      "Ġdur": 3674,
      "Ġdig": 3675,
      "Ġdiff": 3676,
      "Ġdaughters": 3677,
      "Ġcam": 3678,
      "Ġcarry": 3679,
      "Ġlend": 3680,
      "esy": 3681,
      "enant": 3682,
      "Ġnought": 3683,
      "Ġthunder": 3684,
      "Ġtop": 3685,
      "Ġhit": 3686,
      "onci": 3687,
      "Ġyoke": 3688,
      "Ġpol": 3689,
      "Ġpains": 3690,
      "Ġpowers": 3691,
      "ote": 3692,
      "vell": 3693,
      "Ġgarden": 3694,
      "ster": 3695,
      "atience": 3696,
      "Ġbeyond": 3697,
      "cell": 3698,
      "utes": 3699,
      "utation": 3700,
      "utenant": 3701,
      "Ġmelt": 3702,
      "ourth": 3703,
      "ourage": 3704,
      "Ġung": 3705,
      "Ġfors": 3706,
      "Ġweight": 3707,
      "Ġele": 3708,
      "ills": 3709,
      "herit": 3710,
      "Ġstone": 3711,
      "Ġstout": 3712,
      "Ġstoop": 3713,
      "Ġkin": 3714,
      "alisbury": 3715,
      "Ġrel": 3716,
      "Ġlion": 3717,
      "rain": 3718,
      "raced": 3719,
      "hion": 3720,
      "Ġshar": 3721,
      "ams": 3722,
      "Ġnose": 3723,
      "uses": 3724,
      "usion": 3725,
      "Thr": 3726,
      "Those": 3727,
      "Ġloath": 3728,
      "ify": 3729,
      "ified": 3730,
      "Ġalliance": 3731,
      "ĠCo": 3732,
      "hant": 3733,
      "Ġspur": 3734,
      "ĠExeter": 3735,
      "think": 3736,
      "Ġshore": 3737,
      "Ġshun": 3738,
      "icular": 3739,
      "Ġknife": 3740,
      "ares": 3741,
      "Ġmanners": 3742,
      "Ġproof": 3743,
      "othing": 3744,
      "ept": 3745,
      "Ġsway": 3746,
      "Ġswallow": 3747,
      "ument": 3748,
      "Ġarg": 3749,
      "ief": 3750,
      "Ġtroub": 3751,
      "Ġsaying": 3752,
      "LIS": 3753,
      "ĠSic": 3754,
      "ĠSoldier": 3755,
      "Ġbrings": 3756,
      "Ġruth": 3757,
      "ongs": 3758,
      "Ġgraves": 3759,
      "Ġworship": 3760,
      "elve": 3761,
      "Ġmuster": 3762,
      "Young": 3763,
      "Ġoutward": 3764,
      "Ġalack": 3765,
      "Ġalthough": 3766,
      "ĠPaul": 3767,
      "Ġroom": 3768,
      "Ġrose": 3769,
      "Ġflies": 3770,
      "Ġflatt": 3771,
      "Ġwarm": 3772,
      "Ġwarlike": 3773,
      "Ġquestion": 3774,
      "ĠTitus": 3775,
      "Ġthinks": 3776,
      "tled": 3777,
      "ĠDorset": 3778,
      "ĠDerby": 3779,
      "Ġcommons": 3780,
      "Ġadm": 3781,
      "Ġadvant": 3782,
      "Thanks": 3783,
      "Ġnorth": 3784,
      "ĠFrench": 3785,
      "Ġperil": 3786,
      "Ġperceive": 3787,
      "Ġperpet": 3788,
      "Ġrepeal": 3789,
      "Ġplead": 3790,
      "Ġintend": 3791,
      "Ġintellig": 3792,
      "Ġcontin": 3793,
      "Ġcontempt": 3794,
      "Ġpowerful": 3795,
      "Ġhelm": 3796,
      "Ġends": 3797,
      "Ġendure": 3798,
      "Ġbrain": 3799,
      "ression": 3800,
      "Ġhateful": 3801,
      "Ġmeaning": 3802,
      "Ġkindness": 3803,
      "Ġfinds": 3804,
      "Ġstrew": 3805,
      "Ġstreets": 3806,
      "Ġnative": 3807,
      "Ġbuild": 3808,
      "Ġimprison": 3809,
      "Ġpatricians": 3810,
      "Ġdrunk": 3811,
      "Ġholds": 3812,
      "Ġrule": 3813,
      "Ġattempt": 3814,
      "Ġdefence": 3815,
      "Ġmistake": 3816,
      "Ġchide": 3817,
      "Lords": 3818,
      "Ġboot": 3819,
      "Ġcourtesy": 3820,
      "Ġdiscontent": 3821,
      "Ġservices": 3822,
      "Ġreconci": 3823,
      "Ġrememb": 3824,
      "Ġcurrent": 3825,
      "Ġsupper": 3826,
      "Ġtempt": 3827,
      "Ġsometime": 3828,
      "Ġfreely": 3829,
      "Whither": 3830,
      "Ġsilent": 3831,
      "Ġdespite": 3832,
      "Ġterror": 3833,
      "Ġregal": 3834,
      "Ġresolved": 3835,
      "Ġcorrupt": 3836,
      "Ġprotest": 3837,
      "Ġoppos": 3838,
      "Ġdrops": 3839,
      "Ġrebell": 3840,
      "change": 3841,
      "Ġprivile": 3842,
      "Ġinnoc": 3843,
      "About": 3844,
      "Ġacqu": 3845,
      "Ġaccept": 3846,
      "Ġfamous": 3847,
      "Ġsuspect": 3848,
      "Ġsuspicion": 3849,
      "Besides": 3850,
      "Ġadvance": 3851,
      "Ġcaptain": 3852,
      "Ġforsworn": 3853,
      "Ġdisgrace": 3854,
      "Ġavoid": 3855,
      "Ġoccasion": 3856,
      "Ġpalace": 3857,
      "Ġneighbour": 3858,
      "Ġsimple": 3859,
      "Ġfresh": 3860,
      "Ġpunish": 3861,
      "Ġstopp": 3862,
      "ĠAnti": 3863,
      "Ġtreacherous": 3864,
      "Ġbenef": 3865,
      "Ġgirl": 3866,
      "Ġdeceived": 3867,
      "yrrel": 3868,
      "Ġlarge": 3869,
      "Ġearnest": 3870,
      "Ġgrievous": 3871,
      "Ġsanctuary": 3872,
      "aoler": 3873,
      "Ġdagger": 3874,
      "ĠRosaline": 3875,
      "ĠMayor": 3876,
      "Volsce": 3877,
      "Ġdurst": 3878,
      "Ad": 3879,
      "Cry": 3880,
      "Ex": 3881,
      "Father": 3882,
      "King": 3883,
      "Long": 3884,
      "Lady": 3885,
      "Leave": 3886,
      "Per": 3887,
      "Right": 3888,
      "Sm": 3889,
      "Set": 3890,
      "UGH": 3891,
      "Warwick": 3892,
      "Wilt": 3893,
      "con": 3894,
      "cary": 3895,
      "dig": 3896,
      "ex": 3897,
      "eat": 3898,
      "fer": 3899,
      "good": 3900,
      "ipe": 3901,
      "ker": 3902,
      "lous": 3903,
      "lace": 3904,
      "lict": 3905,
      "my": 3906,
      "nes": 3907,
      "oves": 3908,
      "pr": 3909,
      "pro": 3910,
      "pardon": 3911,
      "ron": 3912,
      "shall": 3913,
      "tles": 3914,
      "urious": 3915,
      "woman": 3916,
      "yard": 3917,
      "ĠAnd": 3918,
      "ĠThey": 3919,
      "ĠTherefore": 3920,
      "Ġiron": 3921,
      "Ġtim": 3922,
      "Ġtaunt": 3923,
      "Ġtask": 3924,
      "hend": 3925,
      "hest": 3926,
      "held": 3927,
      "Ġsch": 3928,
      "Ġsqu": 3929,
      "Ġmaking": 3930,
      "ination": 3931,
      "Ġwest": 3932,
      "Ġwort": 3933,
      "Ġwag": 3934,
      "Ġwhiles": 3935,
      "reen": 3936,
      "rehend": 3937,
      "have": 3938,
      "happ": 3939,
      "haps": 3940,
      "Ġbas": 3941,
      "Ġbaw": 3942,
      "Ġfain": 3943,
      "Ġfires": 3944,
      "itious": 3945,
      "Ġdi": 3946,
      "Ġdin": 3947,
      "Ġdet": 3948,
      "Ġdies": 3949,
      "Ġdign": 3950,
      "Ġdying": 3951,
      "Ġcher": 3952,
      "Ġchall": 3953,
      "Ġciv": 3954,
      "Ġcease": 3955,
      "Ġlent": 3956,
      "Ġlark": 3957,
      "aries": 3958,
      "Ġthorn": 3959,
      "Ġtoad": 3960,
      "Ġhid": 3961,
      "Ġhie": 3962,
      "onation": 3963,
      "Ġyear": 3964,
      "Ġyond": 3965,
      "Ġpier": 3966,
      "Ġpair": 3967,
      "Ġpalm": 3968,
      "Ġpainted": 3969,
      "Ġpiece": 3970,
      "Ġbelike": 3971,
      "Ġbehalf": 3972,
      "Ġhaz": 3973,
      "ades": 3974,
      "ric": 3975,
      "Ġstret": 3976,
      "Ġstory": 3977,
      "ales": 3978,
      "idence": 3979,
      "Ġasleep": 3980,
      "roll": 3981,
      "room": 3982,
      "Ġsham": 3983,
      "Ġshape": 3984,
      "amour": 3985,
      "verse": 3986,
      "earer": 3987,
      "ushy": 3988,
      "Ġdoor": 3989,
      "andal": 3990,
      "Ġseest": 3991,
      "gel": 3992,
      "artius": 3993,
      "Ġsup": 3994,
      "Ġsuck": 3995,
      "Ġfail": 3996,
      "Ġfawn": 3997,
      "Ġspare": 3998,
      "ulch": 3999,
      "ulate": 4000,
      "icy": 4001,
      "ants": 4002,
      "eces": 4003,
      "ared": 4004,
      "ĠHer": 4005,
      "ĠLartius": 4006,
      "Ġhated": 4007,
      "Ġswell": 4008,
      "Ġarri": 4009,
      "Ġtrans": 4010,
      "ĠBe": 4011,
      "ĠBer": 4012,
      "Ġuna": 4013,
      "Ġuns": 4014,
      "Ġunst": 4015,
      "Ġunless": 4016,
      "ĠSc": 4017,
      "ĠSalisbury": 4018,
      "Ġring": 4019,
      "ĠWIL": 4020,
      "LOUGH": 4021,
      "akest": 4022,
      "Ġshouldst": 4023,
      "Ġdisper": 4024,
      "Ġalter": 4025,
      "Ġfathers": 4026,
      "ĠPeter": 4027,
      "Ġslow": 4028,
      "Ġoffic": 4029,
      "Ġwhereof": 4030,
      "Ġwarri": 4031,
      "Ġripe": 4032,
      "Ġquit": 4033,
      "Ġhasty": 4034,
      "Ġparticular": 4035,
      "ĠTar": 4036,
      "ĠTyrrel": 4037,
      "Ġtwelve": 4038,
      "Ġgreatest": 4039,
      "Ġraise": 4040,
      "ĠLords": 4041,
      "ullus": 4042,
      "Ġserves": 4043,
      "ĠJack": 4044,
      "Ġconsider": 4045,
      "ĠFri": 4046,
      "Ġrepair": 4047,
      "aints": 4048,
      "aintain": 4049,
      "Ġremed": 4050,
      "Ġintent": 4051,
      "Ġapparent": 4052,
      "Ġhopes": 4053,
      "Stri": 4054,
      "Only": 4055,
      "clock": 4056,
      "Ġputs": 4057,
      "Ġrights": 4058,
      "Ġfortunes": 4059,
      "Ġaccuse": 4060,
      "Ġaccursed": 4061,
      "Ġbrace": 4062,
      "Ġboys": 4063,
      "Ġweeps": 4064,
      "Ġconference": 4065,
      "Ġgriefs": 4066,
      "Ġcharged": 4067,
      "Uncle": 4068,
      "Ġrevenged": 4069,
      "Ġcounc": 4070,
      "Ġimport": 4071,
      "Ġdevotion": 4072,
      "Ġturns": 4073,
      "Ġhumbly": 4074,
      "aments": 4075,
      "Ġsends": 4076,
      "Ġruled": 4077,
      "Ġmistrust": 4078,
      "Ġwindows": 4079,
      "Ġsense": 4080,
      "Ġdeserves": 4081,
      "Ġbeloved": 4082,
      "uteous": 4083,
      "venture": 4084,
      "Ġcommanded": 4085,
      "Ġnobly": 4086,
      "Ġforeign": 4087,
      "Ġmerit": 4088,
      "Ġheirs": 4089,
      "Ġmaiden": 4090,
      "Ġsilence": 4091,
      "Cannot": 4092,
      "Ġcontented": 4093,
      "Ġassist": 4094,
      "Ġassured": 4095,
      "Ġsingle": 4096,
      "Ġsickness": 4097,
      "Ġgrieve": 4098,
      "blic": 4099,
      "Ġresolution": 4100,
      "Ġveins": 4101,
      "Ġsky": 4102,
      "Ġfrowns": 4103,
      "Ġthrice": 4104,
      "Ġbabes": 4105,
      "Ġwait": 4106,
      "rithee": 4107,
      "Ġgroans": 4108,
      "Ġshadows": 4109,
      "Ġfierce": 4110,
      "Ġdestroy": 4111,
      "Ġclear": 4112,
      "Ġtrumpet": 4113,
      "Ġuncles": 4114,
      "Ġtorment": 4115,
      "Ġduked": 4116,
      "Ġcomplain": 4117,
      "Ġapproach": 4118,
      "Beseech": 4119,
      "Ġrefuse": 4120,
      "Ġtempest": 4121,
      "Ġreverend": 4122,
      "banished": 4123,
      "Ġodds": 4124,
      "Ġeagle": 4125,
      "Ġdebt": 4126,
      "Ġcounterfeit": 4127,
      "Ġignorant": 4128,
      "Ġstabb": 4129,
      "Ġgovernment": 4130,
      "Ġdismal": 4131,
      "Ġlength": 4132,
      "grim": 4133,
      "Ġholp": 4134,
      "Ġpilgrim": 4135,
      "Ġcondemn": 4136,
      "othecary": 4137,
      "Ġtrembling": 4138,
      "Ġtorture": 4139,
      "Ġsepulch": 4140,
      "Ġundertake": 4141,
      "Ġcircum": 4142,
      "Ġequal": 4143,
      "Ġdisdain": 4144,
      "Ġwhisper": 4145,
      "Ġpurchase": 4146,
      "ĠConspirator": 4147,
      "Coriolanus": 4148,
      "Ġflatterer": 4149,
      "Ġadvantage": 4150,
      "Ġperpetual": 4151,
      "Ġrebellion": 4152,
      "Ġprivilege": 4153,
      "Ġschool": 4154,
      "Ġworthi": 4155,
      "Ġcivil": 4156,
      "ĠWILLOUGH": 4157,
      "Ġdukedom": 4158,
      "ĠWILLOUGHBY": 4159,
      "Amen": 4160,
      "Dost": 4161,
      "Down": 4162,
      "Draw": 4163,
      "Fl": 4164,
      "Has": 4165,
      "Help": 4166,
      "Love": 4167,
      "Mark": 4168,
      "Methought": 4169,
      "Oh": 4170,
      "Ri": 4171,
      "RUT": 4172,
      "Wr": 4173,
      "Wit": 4174,
      "Ye": 4175,
      "af": 4176,
      "bit": 4177,
      "bear": 4178,
      "cest": 4179,
      "cceed": 4180,
      "fa": 4181,
      "gar": 4182,
      "ghan": 4183,
      "gers": 4184,
      "hor": 4185,
      "just": 4186,
      "lor": 4187,
      "love": 4188,
      "lanch": 4189,
      "made": 4190,
      "nal": 4191,
      "og": 4192,
      "oard": 4193,
      "par": 4194,
      "pass": 4195,
      "pier": 4196,
      "rs": 4197,
      "sion": 4198,
      "same": 4199,
      "ties": 4200,
      "teen": 4201,
      "val": 4202,
      "vours": 4203,
      "war": 4204,
      "what": 4205,
      "wear": 4206,
      "ys": 4207,
      "ĠQ": 4208,
      "Ġz": 4209,
      "ĠTo": 4210,
      "Ġtut": 4211,
      "Ġtres": 4212,
      "Ġtig": 4213,
      "Ġtable": 4214,
      "Ġtakes": 4215,
      "Ġable": 4216,
      "Ġsy": 4217,
      "Ġsink": 4218,
      "Ġsire": 4219,
      "Ġsouth": 4220,
      "Ġsnow": 4221,
      "Ġmood": 4222,
      "Ġmag": 4223,
      "Ġmotion": 4224,
      "Ġmaintain": 4225,
      "Ġwing": 4226,
      "Ġwake": 4227,
      "Ġwhip": 4228,
      "rence": 4229,
      "Ġbalm": 4230,
      "Ġbands": 4231,
      "Ġfi": 4232,
      "Ġfle": 4233,
      "Ġfas": 4234,
      "Ġfro": 4235,
      "ering": 4236,
      "llen": 4237,
      "iter": 4238,
      "Ġope": 4239,
      "Ġobs": 4240,
      "Ġdate": 4241,
      "Ġcaught": 4242,
      "Ġcatch": 4243,
      "Ġled": 4244,
      "Ġlur": 4245,
      "Ġlance": 4246,
      "Ġlap": 4247,
      "esu": 4248,
      "esar": 4249,
      "enge": 4250,
      "Ġnail": 4251,
      "Ġthird": 4252,
      "Ġthumb": 4253,
      "Ġhind": 4254,
      "Ġhig": 4255,
      "Ġhire": 4256,
      "Ġyon": 4257,
      "Ġped": 4258,
      "Ġport": 4259,
      "Ġpause": 4260,
      "Ġparent": 4261,
      "Ġheed": 4262,
      "ingly": 4263,
      "strous": 4264,
      "ater": 4265,
      "atri": 4266,
      "atest": 4267,
      "ature": 4268,
      "sell": 4269,
      "Ġbef": 4270,
      "Ġbethink": 4271,
      "Ġbeheld": 4272,
      "Ġink": 4273,
      "Ġhare": 4274,
      "Ġhaught": 4275,
      "Ġmelanch": 4276,
      "keley": 4277,
      "Ġwept": 4278,
      "Ġweigh": 4279,
      "illy": 4280,
      "illing": 4281,
      "hern": 4282,
      "rif": 4283,
      "rich": 4284,
      "Ġste": 4285,
      "Ġstro": 4286,
      "Ġstroke": 4287,
      "Ġstumble": 4288,
      "Ġits": 4289,
      "urg": 4290,
      "urrey": 4291,
      "alse": 4292,
      "Ġreap": 4293,
      "rage": 4294,
      "Ġsore": 4295,
      "Ġones": 4296,
      "ushing": 4297,
      "Ġsell": 4298,
      "Ġlod": 4299,
      "Ġsucceed": 4300,
      "ĠCounty": 4301,
      "Ġspl": 4302,
      "Ġspit": 4303,
      "Ġanointed": 4304,
      "ters": 4305,
      "Ġvent": 4306,
      "Ġvows": 4307,
      "nty": 4308,
      "Ġshr": 4309,
      "Ġshroud": 4310,
      "icles": 4311,
      "Ġherd": 4312,
      "Ġblaz": 4313,
      "Ġknave": 4314,
      "ĠGive": 4315,
      "Ġconce": 4316,
      "Ġconceit": 4317,
      "ĠHis": 4318,
      "Ġcomb": 4319,
      "ĠLau": 4320,
      "ĠOff": 4321,
      "ement": 4322,
      "ieved": 4323,
      "aughan": 4324,
      "Ġtroop": 4325,
      "Ġunse": 4326,
      "Ġunhapp": 4327,
      "ĠSo": 4328,
      "ĠShore": 4329,
      "Ġorn": 4330,
      "Ġbran": 4331,
      "Ġrust": 4332,
      "ignty": 4333,
      "ongst": 4334,
      "ĠWell": 4335,
      "ĠWilt": 4336,
      "ĠWhere": 4337,
      "orted": 4338,
      "Ġworn": 4339,
      "Ġjew": 4340,
      "Ġeng": 4341,
      "Ġenforce": 4342,
      "harge": 4343,
      "harged": 4344,
      "Ġwholesome": 4345,
      "irect": 4346,
      "iced": 4347,
      "agues": 4348,
      "Ġfriendly": 4349,
      "ized": 4350,
      "AMUS": 4351,
      "Ġdescent": 4352,
      "Ġdescend": 4353,
      "Ġflow": 4354,
      "Ġflood": 4355,
      "Ġflint": 4356,
      "Ġslaves": 4357,
      "Ġoffend": 4358,
      "Ġexerc": 4359,
      "Noble": 4360,
      "Ġbred": 4361,
      "Ġlooking": 4362,
      "Ġfears": 4363,
      "ĠApollo": 4364,
      "Ġleague": 4365,
      "Ġparted": 4366,
      "bert": 4367,
      "ĠDo": 4368,
      "Ġstanding": 4369,
      "Ġbetray": 4370,
      "Ġclim": 4371,
      "Ġcommission": 4372,
      "Ġrare": 4373,
      "Ġraised": 4374,
      "Ġbearing": 4375,
      "Ġado": 4376,
      "Ġserved": 4377,
      "Ġwrite": 4378,
      "Ġremove": 4379,
      "osing": 4380,
      "Ġsets": 4381,
      "iled": 4382,
      "Ġappeal": 4383,
      "Ġimm": 4384,
      "orses": 4385,
      "Ġtremble": 4386,
      "Ġprick": 4387,
      "Ġresc": 4388,
      "Ġwitch": 4389,
      "ables": 4390,
      "Ġsubstance": 4391,
      "Ġaccord": 4392,
      "Ġaccused": 4393,
      "Ġminds": 4394,
      "Ġmisfort": 4395,
      "Ġmischan": 4396,
      "Ġneedful": 4397,
      "Ġsorrows": 4398,
      "Ġlightning": 4399,
      "Ġconfirm": 4400,
      "twixt": 4401,
      "Ġlesser": 4402,
      "Ġnatural": 4403,
      "Ġsovereignty": 4404,
      "Ġcountrymen": 4405,
      "Ġmeeting": 4406,
      "Ġbreathing": 4407,
      "Ġwanting": 4408,
      "Ġchase": 4409,
      "Ġsleeping": 4410,
      "Anon": 4411,
      "Ġdrag": 4412,
      "IDAMUS": 4413,
      "Ġfalsehood": 4414,
      "Ġpleased": 4415,
      "Ġdarest": 4416,
      "should": 4417,
      "Ġinfant": 4418,
      "Ġinfection": 4419,
      "Ġboots": 4420,
      "Ġoaths": 4421,
      "Ġsecure": 4422,
      "Ġdiscover": 4423,
      "Ġrecom": 4424,
      "Ġrecord": 4425,
      "Ġcraves": 4426,
      "Ġgrey": 4427,
      "Ġsupposed": 4428,
      "Ġfaithful": 4429,
      "Ġtemper": 4430,
      "Ġmonarch": 4431,
      "Ġnobility": 4432,
      "Ġsometimes": 4433,
      "Ġgrowing": 4434,
      "Didst": 4435,
      "noon": 4436,
      "voked": 4437,
      "Ġspirits": 4438,
      "Ġincen": 4439,
      "Ġterms": 4440,
      "azed": 4441,
      "Ġbreathed": 4442,
      "Until": 4443,
      "Ġdamn": 4444,
      "Ġdirection": 4445,
      "Ġundone": 4446,
      "Ġpossible": 4447,
      "Ġresolve": 4448,
      "Ġburns": 4449,
      "Ġcorre": 4450,
      "Ġcoronation": 4451,
      "Ġwaste": 4452,
      "Ġfourteen": 4453,
      "Ġselfsame": 4454,
      "Ġtriumphant": 4455,
      "Ġpraises": 4456,
      "ĠCaesar": 4457,
      "Ġsacrif": 4458,
      "Ġplainly": 4459,
      "Ġago": 4460,
      "Ġmouths": 4461,
      "Ġbarren": 4462,
      "Ġlimbs": 4463,
      "Ġrebels": 4464,
      "Ġexpress": 4465,
      "Ġurge": 4466,
      "Ġforgive": 4467,
      "March": 4468,
      "Marcius": 4469,
      "Ġcolour": 4470,
      "Ġpitch": 4471,
      "Ġtorch": 4472,
      "Ġobject": 4473,
      "Ġestate": 4474,
      "Ġspoil": 4475,
      "Ġextrem": 4476,
      "Ġpublic": 4477,
      "Supp": 4478,
      "eeming": 4479,
      "Ġshield": 4480,
      "Ġgallant": 4481,
      "Ġbeasts": 4482,
      "Ġreverence": 4483,
      "ĠWilliam": 4484,
      "Ġprosperous": 4485,
      "Ġevil": 4486,
      "Ġmonths": 4487,
      "Ġignorance": 4488,
      "Ġdetermine": 4489,
      "Ġdetermined": 4490,
      "Ġhungry": 4491,
      "Ġpieces": 4492,
      "Ġchurchyard": 4493,
      "Ġjoints": 4494,
      "Ġprophet": 4495,
      "Ġpetition": 4496,
      "Ġsteeds": 4497,
      "Ġunknown": 4498,
      "ARCHIDAMUS": 4499,
      "Commend": 4500,
      "Ġtyranny": 4501,
      "Return": 4502,
      "safe": 4503,
      "Ġwolf": 4504,
      "Ġelder": 4505,
      "Ġrenowned": 4506,
      "Ġdearest": 4507,
      "Ġdissol": 4508,
      "Ġlangu": 4509,
      "ribunes": 4510,
      "Ġadversaries": 4511,
      "Ġbleeding": 4512,
      "Ġcamest": 4513,
      "Ġpolicy": 4514,
      "Ġremembrance": 4515,
      "Ġbenefit": 4516,
      "Ġcherish": 4517,
      "Ġchallenge": 4518,
      "Ġpierce": 4519,
      "ĠBerkeley": 4520,
      "Ġofficers": 4521,
      "Ġwarriors": 4522,
      "ĠFriar": 4523,
      "Ġsepulchre": 4524,
      "RUTLAND": 4525,
      "Ġtrespass": 4526,
      "Ġmelancholy": 4527,
      "Ġstrokes": 4528,
      "ĠLaurence": 4529,
      "ĠOfficer": 4530,
      "ĠWiltshire": 4531,
      "Ġexercise": 4532,
      "Ġmischance": 4533,
      ".--": 4534,
      "ATER": 4535,
      "Acc": 4536,
      "Add": 4537,
      "BAG": 4538,
      "Bring": 4539,
      "CR": 4540,
      "Cond": 4541,
      "Courage": 4542,
      "De": 4543,
      "EP": 4544,
      "Eng": 4545,
      "Each": 4546,
      "ELAND": 4547,
      "Find": 4548,
      "Get": 4549,
      "Gard": 4550,
      "Gaoler": 4551,
      "HEN": 4552,
      "Henry": 4553,
      "Hail": 4554,
      "LY": 4555,
      "Lie": 4556,
      "Mis": 4557,
      "Men": 4558,
      "MOR": 4559,
      "Many": 4560,
      "Name": 4561,
      "OT": 4562,
      "OOP": 4563,
      "Plantagenet": 4564,
      "Rem": 4565,
      "Rather": 4566,
      "Se": 4567,
      "Sound": 4568,
      "Save": 4569,
      "Somet": 4570,
      "SIR": 4571,
      "TON": 4572,
      "Tush": 4573,
      "Toward": 4574,
      "TEP": 4575,
      "TMOR": 4576,
      "Very": 4577,
      "WES": 4578,
      "Worthy": 4579,
      "WATER": 4580,
      "ZWATER": 4581,
      "aven": 4582,
      "bod": 4583,
      "bble": 4584,
      "boy": 4585,
      "cus": 4586,
      "dit": 4587,
      "des": 4588,
      "eg": 4589,
      "fold": 4590,
      "great": 4591,
      "glect": 4592,
      "how": 4593,
      "iver": 4594,
      "iven": 4595,
      "kin": 4596,
      "kind": 4597,
      "look": 4598,
      "leness": 4599,
      "net": 4600,
      "ped": 4601,
      "pret": 4602,
      "rings": 4603,
      "sire": 4604,
      "sues": 4605,
      "than": 4606,
      "tic": 4607,
      "tend": 4608,
      "upt": 4609,
      "uries": 4610,
      "vised": 4611,
      "would": 4612,
      "xe": 4613,
      "Ġer": 4614,
      "Ġing": 4615,
      "Ġord": 4616,
      "Ġeter": 4617,
      "Ġtard": 4618,
      "Ġtree": 4619,
      "Ġtaught": 4620,
      "Ġtune": 4621,
      "Ġtail": 4622,
      "hel": 4623,
      "Ġah": 4624,
      "Ġapt": 4625,
      "Ġaxe": 4626,
      "Ġsn": 4627,
      "Ġsought": 4628,
      "Ġship": 4629,
      "Ġmill": 4630,
      "Ġmain": 4631,
      "Ġmiss": 4632,
      "Ġmirth": 4633,
      "Ġmethought": 4634,
      "inate": 4635,
      "inct": 4636,
      "Ġwood": 4637,
      "Ġwide": 4638,
      "Ġwaking": 4639,
      "reant": 4640,
      "Ġbent": 4641,
      "Ġbore": 4642,
      "Ġborrow": 4643,
      "Ġbuck": 4644,
      "ision": 4645,
      "Ġfood": 4646,
      "Ġfig": 4647,
      "Ġfun": 4648,
      "Ġfeet": 4649,
      "Ġfix": 4650,
      "erily": 4651,
      "itch": 4652,
      "Ġoak": 4653,
      "Ġcent": 4654,
      "Ġcere": 4655,
      "Ġcred": 4656,
      "Ġlour": 4657,
      "Ġluck": 4658,
      "envol": 4659,
      "ency": 4660,
      "Ġnet": 4661,
      "Ġnest": 4662,
      "Ġnice": 4663,
      "Ġnap": 4664,
      "Ġnumb": 4665,
      "Ġthir": 4666,
      "Ġtoil": 4667,
      "Ġtooth": 4668,
      "Ġhorses": 4669,
      "Ġpin": 4670,
      "Ġpent": 4671,
      "Ġpath": 4672,
      "Ġpop": 4673,
      "Ġpound": 4674,
      "Ġpage": 4675,
      "Ġpee": 4676,
      "ĠIs": 4677,
      "Ġheels": 4678,
      "ingers": 4679,
      "omen": 4680,
      "Ġgains": 4681,
      "Ġgoose": 4682,
      "aning": 4683,
      "athe": 4684,
      "ative": 4685,
      "semble": 4686,
      "Ġbere": 4687,
      "Ġbefall": 4688,
      "Ġbeams": 4689,
      "Ġhaunt": 4690,
      "lex": 4691,
      "etite": 4692,
      "irg": 4693,
      "edition": 4694,
      "ednes": 4695,
      "Ġmere": 4696,
      "Ġmend": 4697,
      "Ġmeat": 4698,
      "ourse": 4699,
      "Ġforced": 4700,
      "Ġisle": 4701,
      "oops": 4702,
      "Ġevent": 4703,
      "Ġsting": 4704,
      "Ġstat": 4705,
      "Ġstol": 4706,
      "Ġstud": 4707,
      "Ġstern": 4708,
      "Ġstamp": 4709,
      "urgh": 4710,
      "Ġrej": 4711,
      "Ġrev": 4712,
      "Ġreach": 4713,
      "ARLIS": 4714,
      "Ġlift": 4715,
      "Ġliken": 4716,
      "rave": 4717,
      "ract": 4718,
      "Ġdecl": 4719,
      "Ġdeceit": 4720,
      "Ġdeaf": 4721,
      "Ġaspect": 4722,
      "Ġshapes": 4723,
      "amed": 4724,
      "ested": 4725,
      "ushes": 4726,
      "Ġdogs": 4727,
      "ĠRatcliff": 4728,
      "ĠRaven": 4729,
      "Thine": 4730,
      "Ġsees": 4731,
      "Ġseason": 4732,
      "Ġload": 4733,
      "Ġlover": 4734,
      "Ġlovers": 4735,
      "Ġlovest": 4736,
      "ueen": 4737,
      "Ġalleg": 4738,
      "Ġsullen": 4739,
      "ĠCARLIS": 4740,
      "Ġfact": 4741,
      "ORGE": 4742,
      "Ġspy": 4743,
      "Ġspot": 4744,
      "Ġsple": 4745,
      "Ġspect": 4746,
      "Ġspread": 4747,
      "ĠEly": 4748,
      "ĠELY": 4749,
      "tering": 4750,
      "ouses": 4751,
      "Ġshallow": 4752,
      "ilful": 4753,
      "Ġvice": 4754,
      "thou": 4755,
      "Ġshook": 4756,
      "ical": 4757,
      "Ġupright": 4758,
      "Ġhers": 4759,
      "seless": 4760,
      "Ġblot": 4761,
      "Ġblast": 4762,
      "antime": 4763,
      "Ġknot": 4764,
      "Ġknock": 4765,
      "Ġmanage": 4766,
      "ĠGreen": 4767,
      "Ġconstant": 4768,
      "ĠHim": 4769,
      "ĠLe": 4770,
      "ived": 4771,
      "Ġamain": 4772,
      "Ġswain": 4773,
      "erest": 4774,
      "Ġtroops": 4775,
      "ĠBy": 4776,
      "ĠBushy": 4777,
      "ĠBurg": 4778,
      "Ġunjust": 4779,
      "Ġgoss": 4780,
      "ĠSurrey": 4781,
      "ĠSCR": 4782,
      "ĠSTEP": 4783,
      "quire": 4784,
      "Ġbrat": 4785,
      "Ġrue": 4786,
      "Ġround": 4787,
      "Ġrouse": 4788,
      "ĠWho": 4789,
      "ĠWel": 4790,
      "Ġgrain": 4791,
      "ĠYet": 4792,
      "Ġshel": 4793,
      "unate": 4794,
      "Ġworm": 4795,
      "Ġjourn": 4796,
      "opy": 4797,
      "Ġshoulder": 4798,
      "Ġheartily": 4799,
      "Ġsav": 4800,
      "Withdraw": 4801,
      "Ġdisin": 4802,
      "Ġoutrage": 4803,
      "Ġproper": 4804,
      "Ġprovoked": 4805,
      "Ġalike": 4806,
      "Ġalms": 4807,
      "orney": 4808,
      "agot": 4809,
      "ptain": 4810,
      "ĠPray": 4811,
      "Ġroar": 4812,
      "Ġmarks": 4813,
      "Ġdesires": 4814,
      "Ġflourish": 4815,
      "Ġslight": 4816,
      "Ġofficer": 4817,
      "Ġexcept": 4818,
      "ĠVal": 4819,
      "ĠVaughan": 4820,
      "Ġtells": 4821,
      "Ġabused": 4822,
      "Ġabhor": 4823,
      "Whereto": 4824,
      "ĠAd": 4825,
      "Ġparting": 4826,
      "Ġpartly": 4827,
      "Ġparties": 4828,
      "ĠTake": 4829,
      "Ġthinking": 4830,
      "Ġfairly": 4831,
      "Ġbetide": 4832,
      "Ġbetimes": 4833,
      "Ġclo": 4834,
      "Ġclamour": 4835,
      "istress": 4836,
      "Ġrain": 4837,
      "Ġrapier": 4838,
      "ulls": 4839,
      "Ġscatter": 4840,
      "Ġscope": 4841,
      "Ġscandal": 4842,
      "Ġserp": 4843,
      "Ġwrink": 4844,
      "Ġwrought": 4845,
      "Ġcrowns": 4846,
      "Ġchildish": 4847,
      "ĠFarewell": 4848,
      "ĠFIT": 4849,
      "Ġperfect": 4850,
      "Ġhoar": 4851,
      "Ġbegan": 4852,
      "Ġreply": 4853,
      "Ġrepose": 4854,
      "Ġremorse": 4855,
      "ercy": 4856,
      "forth": 4857,
      "forced": 4858,
      "Ġappea": 4859,
      "Ġappetite": 4860,
      "Ġhark": 4861,
      "Ġharsh": 4862,
      "Ġcounten": 4863,
      "thee": 4864,
      "Ġhelps": 4865,
      "Ġtreasure": 4866,
      "Ġtreasons": 4867,
      "Ġslept": 4868,
      "Ġbank": 4869,
      "Ġprice": 4870,
      "Ġdearly": 4871,
      "Ġkeeper": 4872,
      "Ġsmil": 4873,
      "Ġsmother": 4874,
      "Ġresist": 4875,
      "Ġcompan": 4876,
      "ably": 4877,
      "Ġhousehold": 4878,
      "Ġpurple": 4879,
      "Ġsubtle": 4880,
      "Ġcheque": 4881,
      "Ġcheap": 4882,
      "Ġbraw": 4883,
      "Ġcoll": 4884,
      "Ġcock": 4885,
      "Ġcoff": 4886,
      "Ġkindly": 4887,
      "ruly": 4888,
      "Ġconfound": 4889,
      "iety": 4890,
      "twill": 4891,
      "Ġpassing": 4892,
      "Ġpassion": 4893,
      "Ġcareless": 4894,
      "Ġafternoon": 4895,
      "Ġwants": 4896,
      "Ġretire": 4897,
      "Ġattorney": 4898,
      "Ġboast": 4899,
      "Ġyielded": 4900,
      "Sirrah": 4901,
      "Ġpersu": 4902,
      "Ġbelow": 4903,
      "please": 4904,
      "ventry": 4905,
      "ouchsafe": 4906,
      "Ġcraft": 4907,
      "Ġmonument": 4908,
      "Ġsights": 4909,
      "Hadst": 4910,
      "Ġgrows": 4911,
      "Ġhardly": 4912,
      "voc": 4913,
      "Ġboldly": 4914,
      "Ġpoints": 4915,
      "undy": 4916,
      "Ġcholer": 4917,
      "Ġinstant": 4918,
      "Ġterm": 4919,
      "Ġbade": 4920,
      "Ġbeholding": 4921,
      "ranch": 4922,
      "Ġwaters": 4923,
      "Ġfeeling": 4924,
      "Ġminute": 4925,
      "Ġyouthful": 4926,
      "Ġweakness": 4927,
      "Ġregard": 4928,
      "Ġhangs": 4929,
      "Ġseated": 4930,
      "Ġprophes": 4931,
      "Ġprett": 4932,
      "Ġentreaties": 4933,
      "blood": 4934,
      "spurgh": 4935,
      "Ġsignal": 4936,
      "Ġlamentable": 4937,
      "Ġcowardly": 4938,
      "Ġtowns": 4939,
      "Ġforbear": 4940,
      "Ġkinsmen": 4941,
      "overn": 4942,
      "umbling": 4943,
      "mitted": 4944,
      "Ġwax": 4945,
      "Ġhurl": 4946,
      "Ġwriting": 4947,
      "Ġviolence": 4948,
      "Ġdeparture": 4949,
      "Ġdestruction": 4950,
      "Ġusurping": 4951,
      "Ġlambs": 4952,
      "Ġpitiful": 4953,
      "Ġbitterly": 4954,
      "EXTON": 4955,
      "Ġcaps": 4956,
      "Ġconquest": 4957,
      "Ġprofane": 4958,
      "Ġestim": 4959,
      "Ġinjury": 4960,
      "Ġspoken": 4961,
      "Ġexecutioner": 4962,
      "Ġmutinous": 4963,
      "Ġmusicians": 4964,
      "erns": 4965,
      "Ġrank": 4966,
      "Ġgrandam": 4967,
      "Ġrobb": 4968,
      "Ġguests": 4969,
      "Ġtemples": 4970,
      "Ġhaply": 4971,
      "Ġambitious": 4972,
      "Ġwedding": 4973,
      "Ġpenit": 4974,
      "Officer": 4975,
      "Ġprepared": 4976,
      "Conf": 4977,
      "Ġbirds": 4978,
      "Ġframe": 4979,
      "Ġwillingly": 4980,
      "Ġprevented": 4981,
      "Ġlengthen": 4982,
      "Ġshrift": 4983,
      "Ġpleasing": 4984,
      "GEORGE": 4985,
      "Ġgently": 4986,
      "Ġconjure": 4987,
      "Ġdesigns": 4988,
      "Believe": 4989,
      "Ġweapons": 4990,
      "Ġsteps": 4991,
      "Ġnecessity": 4992,
      "ĠAnne": 4993,
      "Ġinstruments": 4994,
      "Ġauthority": 4995,
      "Appear": 4996,
      "Shalt": 4997,
      "Ġesc": 4998,
      "Ġedge": 4999,
      "Ġballad": 5000,
      "Ġrevolt": 5001,
      "ĠBlunt": 5002,
      "Ġcommitted": 5003,
      "fellow": 5004,
      "Ġwondrous": 5005,
      "Ġobedience": 5006,
      "cellent": 5007,
      "Ġsharp": 5008,
      "Through": 5009,
      "ĠCoventry": 5010,
      "Ġruthless": 5011,
      "Ġintelligence": 5012,
      "Ġimprisonment": 5013,
      "Ġdiscontented": 5014,
      "Ġreconcile": 5015,
      "Ġopposite": 5016,
      "Ġdinner": 5017,
      "Ġstretch": 5018,
      "Strike": 5019,
      "Ġzeal": 5020,
      "Ġconceal": 5021,
      "Ġaccording": 5022,
      "Ġmisfortune": 5023,
      "BAGOT": 5024,
      "Gardener": 5025,
      "Towards": 5026,
      "TMORELAND": 5027,
      "WESTMORELAND": 5028,
      "Ġceremon": 5029,
      "envolio": 5030,
      "Ġthirty": 5031,
      "Ġpeevish": 5032,
      "ednesday": 5033,
      "ĠRavenspurgh": 5034,
      "Ġallegiance": 5035,
      "ĠCARLISLE": 5036,
      "ĠBurgundy": 5037,
      "ĠSCROOP": 5038,
      "ĠSTEPHEN": 5039,
      "ĠWelsh": 5040,
      "Ġjourney": 5041,
      "ĠFITZWATER": 5042,
      "ABRA": 5043,
      "Bre": 5044,
      "Ca": 5045,
      "Cont": 5046,
      "Catesby": 5047,
      "Dear": 5048,
      "Dare": 5049,
      "Dep": 5050,
      "Div": 5051,
      "El": 5052,
      "Ever": 5053,
      "Fo": 5054,
      "Fell": 5055,
      "Five": 5056,
      "Fair": 5057,
      "False": 5058,
      "GREY": 5059,
      "Hie": 5060,
      "Harry": 5061,
      "Keep": 5062,
      "Live": 5063,
      "Might": 5064,
      "Much": 5065,
      "Murd": 5066,
      "Making": 5067,
      "None": 5068,
      "Nothing": 5069,
      "Old": 5070,
      "Pur": 5071,
      "Prithee": 5072,
      "Son": 5073,
      "Six": 5074,
      "Ten": 5075,
      "UR": 5076,
      "Verily": 5077,
      "Wert": 5078,
      "Woe": 5079,
      "Yield": 5080,
      "Zounds": 5081,
      "ald": 5082,
      "aces": 5083,
      "action": 5084,
      "bus": 5085,
      "bel": 5086,
      "back": 5087,
      "bric": 5088,
      "car": 5089,
      "com": 5090,
      "cra": 5091,
      "do": 5092,
      "ded": 5093,
      "foot": 5094,
      "go": 5095,
      "got": 5096,
      "give": 5097,
      "ib": 5098,
      "iar": 5099,
      "ipp": 5100,
      "ips": 5101,
      "ivant": 5102,
      "low": 5103,
      "lain": 5104,
      "lic": 5105,
      "long": 5106,
      "law": 5107,
      "mion": 5108,
      "mish": 5109,
      "mory": 5110,
      "maid": 5111,
      "ny": 5112,
      "oon": 5113,
      "oice": 5114,
      "pothecary": 5115,
      "rat": 5116,
      "run": 5117,
      "ront": 5118,
      "son": 5119,
      "some": 5120,
      "smen": 5121,
      "ta": 5122,
      "tom": 5123,
      "tell": 5124,
      "time": 5125,
      "tied": 5126,
      "tany": 5127,
      "uge": 5128,
      "ugg": 5129,
      "vied": 5130,
      "vided": 5131,
      "viron": 5132,
      "wit": 5133,
      "whel": 5134,
      "zz": 5135,
      "ĠThere": 5136,
      "Ġought": 5137,
      "Ġtro": 5138,
      "Ġtame": 5139,
      "Ġtack": 5140,
      "Ġach": 5141,
      "Ġages": 5142,
      "Ġsue": 5143,
      "Ġsings": 5144,
      "Ġsalt": 5145,
      "Ġsurp": 5146,
      "Ġsilly": 5147,
      "Ġmor": 5148,
      "Ġmess": 5149,
      "Ġmouse": 5150,
      "Ġmask": 5151,
      "iner": 5152,
      "inal": 5153,
      "inies": 5154,
      "Ġwink": 5155,
      "Ġwick": 5156,
      "Ġwave": 5157,
      "Ġwench": 5158,
      "reg": 5159,
      "reet": 5160,
      "hand": 5161,
      "Ġband": 5162,
      "Ġbag": 5163,
      "Ġbounty": 5164,
      "orry": 5165,
      "isement": 5166,
      "Ġfart": 5167,
      "Ġfish": 5168,
      "Ġfurn": 5169,
      "Ġfray": 5170,
      "Ġfreed": 5171,
      "Ġfelt": 5172,
      "erved": 5173,
      "itable": 5174,
      "Ġdined": 5175,
      "Ġcrow": 5176,
      "Ġcun": 5177,
      "Ġcost": 5178,
      "Ġcens": 5179,
      "Ġcords": 5180,
      "Ġcrows": 5181,
      "Ġloud": 5182,
      "Ġlads": 5183,
      "ences": 5184,
      "Ġnort": 5185,
      "arm": 5186,
      "Ġthw": 5187,
      "Ġthin": 5188,
      "Ġthick": 5189,
      "Ġthrown": 5190,
      "Ġtops": 5191,
      "Ġhor": 5192,
      "Ġhoney": 5193,
      "Ġhouses": 5194,
      "onstant": 5195,
      "Ġpest": 5196,
      "Ġpurse": 5197,
      "Ġpace": 5198,
      "Ġpomp": 5199,
      "Ġheat": 5200,
      "Ġhera": 5201,
      "Ġheight": 5202,
      "Ġheinous": 5203,
      "oting": 5204,
      "otland": 5205,
      "owl": 5206,
      "Ġgn": 5207,
      "Ġgate": 5208,
      "Ġgown": 5209,
      "Ġgap": 5210,
      "Ġgaunt": 5211,
      "ances": 5212,
      "athed": 5213,
      "sey": 5214,
      "Ġbell": 5215,
      "Ġbeard": 5216,
      "Ġinherit": 5217,
      "aying": 5218,
      "etition": 5219,
      "eder": 5220,
      "utch": 5221,
      "Ġmeed": 5222,
      "Ġmemb": 5223,
      "Ġmemory": 5224,
      "chief": 5225,
      "Ġug": 5226,
      "Ġwealth": 5227,
      "Ġwithdraw": 5228,
      "ado": 5229,
      "aded": 5230,
      "advised": 5231,
      "rick": 5232,
      "rible": 5233,
      "Ġstale": 5234,
      "Ġstock": 5235,
      "Ġsteep": 5236,
      "Ġstiff": 5237,
      "Ġstuff": 5238,
      "urb": 5239,
      "aly": 5240,
      "Ġrend": 5241,
      "Ġrear": 5242,
      "Ġreck": 5243,
      "Ġrevel": 5244,
      "Ġlick": 5245,
      "Ġlivery": 5246,
      "Ġlivest": 5247,
      "raid": 5248,
      "rament": 5249,
      "racious": 5250,
      "Ġdeck": 5251,
      "Ġdearth": 5252,
      "Ġdeform": 5253,
      "Ġsoil": 5254,
      "Ġashes": 5255,
      "ropp": 5256,
      "Ġshare": 5257,
      "Ġshade": 5258,
      "amm": 5259,
      "amity": 5260,
      "Ġwills": 5261,
      "Ġdove": 5262,
      "Throw": 5263,
      "Things": 5264,
      "Ġsearch": 5265,
      "Ġseldom": 5266,
      "Ġseized": 5267,
      "Ġlodge": 5268,
      "arter": 5269,
      "ĠCan": 5270,
      "ĠCup": 5271,
      "Ġfaction": 5272,
      "Ġfavours": 5273,
      "Ġspark": 5274,
      "Ġspider": 5275,
      "ĠEm": 5276,
      "Ġanch": 5277,
      "Ġangel": 5278,
      "Ġancest": 5279,
      "ilence": 5280,
      "iliar": 5281,
      "Ġneat": 5282,
      "Ġvill": 5283,
      "Ġvol": 5284,
      "Ġvirg": 5285,
      "ulf": 5286,
      "ules": 5287,
      "three": 5288,
      "Ġshown": 5289,
      "Ġshru": 5290,
      "Ġblunt": 5291,
      "Ġblushing": 5292,
      "arers": 5293,
      "Ġmanhood": 5294,
      "Ġprin": 5295,
      "Ġprate": 5296,
      "Ġprime": 5297,
      "ĠGood": 5298,
      "Ġconsequ": 5299,
      "ĠHark": 5300,
      "Ġamends": 5301,
      "ember": 5302,
      "emper": 5303,
      "embroke": 5304,
      "Ġlovely": 5305,
      "Ġswears": 5306,
      "Ġthereby": 5307,
      "iege": 5308,
      "Ġtrunk": 5309,
      "ĠBrit": 5310,
      "ĠBagot": 5311,
      "ĠBenvolio": 5312,
      "Ġune": 5313,
      "Ġunwill": 5314,
      "ĠSp": 5315,
      "Ġorator": 5316,
      "Ġbranch": 5317,
      "Ġrum": 5318,
      "Ġranc": 5319,
      "Ġlets": 5320,
      "ĠWas": 5321,
      "ĠWest": 5322,
      "ĠWednesday": 5323,
      "uns": 5324,
      "unken": 5325,
      "Ġlikely": 5326,
      "Ġlikewise": 5327,
      "Ġdeaths": 5328,
      "Ġenrich": 5329,
      "fulness": 5330,
      "ickle": 5331,
      "Ġdiso": 5332,
      "Ġdisease": 5333,
      "Ġdissemb": 5334,
      "Ġproved": 5335,
      "Ġprocess": 5336,
      "Ġprodig": 5337,
      "Ġspeaking": 5338,
      "Ġsirs": 5339,
      "Ġsirrah": 5340,
      "igned": 5341,
      "Ġfoll": 5342,
      "aged": 5343,
      "ĠPl": 5344,
      "Soft": 5345,
      "Ġmars": 5346,
      "Ġslily": 5347,
      "Ġoffices": 5348,
      "Ġext": 5349,
      "Ġexceed": 5350,
      "Ġexcellent": 5351,
      "Ġbread": 5352,
      "Ġwarn": 5353,
      "Ġlooked": 5354,
      "Ġabide": 5355,
      "Ġabund": 5356,
      "Ġbrotherhood": 5357,
      "ffer": 5358,
      "Whereof": 5359,
      "ĠAll": 5360,
      "Ġleaving": 5361,
      "aped": 5362,
      "ĠTell": 5363,
      "ĠTime": 5364,
      "ĠTew": 5365,
      "ĠTroy": 5366,
      "ĠTullus": 5367,
      "ĠTribunes": 5368,
      "Ġgentlewoman": 5369,
      "Ġtwain": 5370,
      "Ġclock": 5371,
      "Ġnights": 5372,
      "isting": 5373,
      "Ġsweetest": 5374,
      "Northumberland": 5375,
      "Ġmothers": 5376,
      "Ġcommends": 5377,
      "Ġraven": 5378,
      "Ġways": 5379,
      "Ġpreserve": 5380,
      "Ġdownright": 5381,
      "Ġdownfall": 5382,
      "Ġadventure": 5383,
      "Ġgraced": 5384,
      "ĠJup": 5385,
      "lied": 5386,
      "ĠFourth": 5387,
      "Ġperish": 5388,
      "Ġbegun": 5389,
      "Ġearl": 5390,
      "Ġreputation": 5391,
      "Ġgrim": 5392,
      "ksbury": 5393,
      "Ġplebe": 5394,
      "Ġintents": 5395,
      "ercing": 5396,
      "Ġtrif": 5397,
      "Ġtrick": 5398,
      "Ġapprehend": 5399,
      "Ġharl": 5400,
      "Ġharvest": 5401,
      "Ġimper": 5402,
      "Ġleg": 5403,
      "Ġlevel": 5404,
      "ĠKent": 5405,
      "Ġtren": 5406,
      "Ġtrees": 5407,
      "Ġended": 5408,
      "clam": 5409,
      "Ġsmell": 5410,
      "Ġbacks": 5411,
      "cheth": 5412,
      "udge": 5413,
      "Ġdrew": 5414,
      "Ġcouldst": 5415,
      "Ġpurge": 5416,
      "ulting": 5417,
      "Ġroyalty": 5418,
      "Ġbrand": 5419,
      "Ġbrains": 5420,
      "Ġforthwith": 5421,
      "Ġhopeful": 5422,
      "Ġbestri": 5423,
      "Ġcoast": 5424,
      "Ġlanded": 5425,
      "Ġlasting": 5426,
      "Ġlights": 5427,
      "Ġbidding": 5428,
      "Ġthousands": 5429,
      "Ġfalls": 5430,
      "Ġcareful": 5431,
      "Ġrevenges": 5432,
      "Ġcounsell": 5433,
      "Ġimpeach": 5434,
      "Ġdrunken": 5435,
      "Ġdancing": 5436,
      "Does": 5437,
      "Ġhumility": 5438,
      "Ġretired": 5439,
      "peian": 5440,
      "Ġattain": 5441,
      "Attend": 5442,
      "Ġdefy": 5443,
      "Ġaffection": 5444,
      "Ġwinds": 5445,
      "ĠMontagues": 5446,
      "shine": 5447,
      "Ġsenseless": 5448,
      "Ġinfer": 5449,
      "Ġboister": 5450,
      "Ġlately": 5451,
      "Ġmurders": 5452,
      "Ġdiscourse": 5453,
      "pleasure": 5454,
      "Ġbattles": 5455,
      "Ġrecreant": 5456,
      "Ġrevengeful": 5457,
      "Ġsadness": 5458,
      "Ġcrook": 5459,
      "Twere": 5460,
      "Ġmonstrous": 5461,
      "Ġprompt": 5462,
      "Ġnobleness": 5463,
      "Ġforehead": 5464,
      "Ġbeauteous": 5465,
      "Ġawake": 5466,
      "Ġmerri": 5467,
      "Ġgrowth": 5468,
      "Ġsilk": 5469,
      "Ġmurderous": 5470,
      "Ġstronger": 5471,
      "Comfort": 5472,
      "Ġcauses": 5473,
      "Ġbosoms": 5474,
      "Ġcloudy": 5475,
      "Ġdivor": 5476,
      "Ġminutes": 5477,
      "Ġtrusty": 5478,
      "Ġdistress": 5479,
      "ĠVolscians": 5480,
      "ĠVolscian": 5481,
      "Ġbeggars": 5482,
      "Ġgrieves": 5483,
      "Ready": 5484,
      "Ġspeedy": 5485,
      "Ġproportion": 5486,
      "Ġflattering": 5487,
      "Prove": 5488,
      "speak": 5489,
      "Ġclosed": 5490,
      "Ġstranger": 5491,
      "Ġskill": 5492,
      "Ġburning": 5493,
      "Ġbecomes": 5494,
      "trees": 5495,
      "Ġacts": 5496,
      "Ġchamp": 5497,
      "eshrew": 5498,
      "Ġblessing": 5499,
      "Ġattended": 5500,
      "guard": 5501,
      "soever": 5502,
      "Ġoppression": 5503,
      "Ġsuddenly": 5504,
      "Ġsacrament": 5505,
      "Ġwritten": 5506,
      "Ġleaden": 5507,
      "Ġsuffering": 5508,
      "Ġagree": 5509,
      "Ġbowels": 5510,
      "Ġlimit": 5511,
      "Ġredress": 5512,
      "Ġclean": 5513,
      "ĠCapulets": 5514,
      "Ġobsequ": 5515,
      "Ġabsent": 5516,
      "Ġabsol": 5517,
      "ĠNed": 5518,
      "Ġmiddle": 5519,
      "Ġmidwife": 5520,
      "Ġmildly": 5521,
      "Ġburnt": 5522,
      "Ġgarments": 5523,
      "Ġprofess": 5524,
      "acles": 5525,
      "shearing": 5526,
      "Ġactions": 5527,
      "Ġfondly": 5528,
      "Ġstorms": 5529,
      "Ġextremity": 5530,
      "Ġpossession": 5531,
      "mediate": 5532,
      "Ġbastards": 5533,
      "Ġpuiss": 5534,
      "Ġgrandsire": 5535,
      "Ġplants": 5536,
      "Ġships": 5537,
      "Ġforswear": 5538,
      "Ġdisgraced": 5539,
      "Ġmeddle": 5540,
      "Ġmodest": 5541,
      "Ġmodel": 5542,
      "Ġeager": 5543,
      "Ġloyalty": 5544,
      "Neither": 5545,
      "Ġavoided": 5546,
      "Ġfeather": 5547,
      "Ġlusty": 5548,
      "Ġneighbours": 5549,
      "Ġunlook": 5550,
      "Desp": 5551,
      "rateful": 5552,
      "Ġsaints": 5553,
      "Ġpetty": 5554,
      "Ġpilot": 5555,
      "Ġconclud": 5556,
      "Ġconclude": 5557,
      "Ġchiefest": 5558,
      "Ġpursuit": 5559,
      "Ġcovert": 5560,
      "Ġcondemned": 5561,
      "Ġconqueror": 5562,
      "Better": 5563,
      "Ġdecay": 5564,
      "Ġvanity": 5565,
      "ĠAlban": 5566,
      "ARCHBISHOP": 5567,
      "Ġaffections": 5568,
      "Ġwandering": 5569,
      "Ġcalamity": 5570,
      "Ġweapon": 5571,
      "Ġheavier": 5572,
      "Ġimagine": 5573,
      "Ġchaste": 5574,
      "Ġinstrument": 5575,
      "Ġthreatening": 5576,
      "Ġwreck": 5577,
      "ĠItaly": 5578,
      "Ġgaze": 5579,
      "Ġfairer": 5580,
      "Ġfairest": 5581,
      "Ġperjured": 5582,
      "Prepare": 5583,
      "glig": 5584,
      "Ġmultitude": 5585,
      "Ġbottom": 5586,
      "Ġdiffere": 5587,
      "ĠSicilia": 5588,
      "Ġcontinue": 5589,
      "Ġacquaint": 5590,
      "Ġadvanced": 5591,
      "ĠAntium": 5592,
      "Ġtaunts": 5593,
      "Ġbawd": 5594,
      "Ġdignity": 5595,
      "Ġhazard": 5596,
      "Ġdispersed": 5597,
      "ĠTarpeian": 5598,
      "Ġpilgrimage": 5599,
      "Ġflatterers": 5600,
      "ĠQueen": 5601,
      "Ġtiger": 5602,
      "Ġfashion": 5603,
      "Ġhinder": 5604,
      "Ġparents": 5605,
      "Ġblaze": 5606,
      "Ġunseen": 5607,
      "Ġunhappy": 5608,
      "Ġornaments": 5609,
      "Ġbranches": 5610,
      "Ġincensed": 5611,
      "Suppose": 5612,
      "Ġlanguage": 5613,
      "Lieutenant": 5614,
      "Sometime": 5615,
      "Ġeternal": 5616,
      "Ġtardy": 5617,
      "Ġnumbers": 5618,
      "Ġrejoice": 5619,
      "Ġlikeness": 5620,
      "Ġspleen": 5621,
      "Ġsavage": 5622,
      "Ġserpent": 5623,
      "Ġcountenance": 5624,
      "Ġprophesy": 5625,
      "Ġceremonious": 5626,
      "ABRAHAM": 5627,
      "Else": 5628,
      "mione": 5629,
      "Ġwicked": 5630,
      "Ġfreedom": 5631,
      "Ġcunning": 5632,
      "Ġnorthern": 5633,
      "Ġherald": 5634,
      "Ġmembers": 5635,
      "ĠCupid": 5636,
      "ĠBrittany": 5637,
      "ĠTewksbury": 5638,
      "ĠJupiter": 5639,
      "Ġboisterous": 5640,
      ";--": 5641,
      "Aw": 5642,
      "Aff": 5643,
      "Aumerle": 5644,
      "Apollo": 5645,
      "Apothecary": 5646,
      "Ban": 5647,
      "BON": 5648,
      "Cle": 5649,
      "Cut": 5650,
      "Cast": 5651,
      "Cold": 5652,
      "CLE": 5653,
      "Den": 5654,
      "Def": 5655,
      "Direct": 5656,
      "EM": 5657,
      "Foul": 5658,
      "Full": 5659,
      "Fourth": 5660,
      "Gain": 5661,
      "Gives": 5662,
      "Grand": 5663,
      "Groom": 5664,
      "Ho": 5665,
      "Hea": 5666,
      "High": 5667,
      "Hunt": 5668,
      "Hang": 5669,
      "Im": 5670,
      "Join": 5671,
      "Kind": 5672,
      "Keeper": 5673,
      "Know": 5674,
      "Lay": 5675,
      "Lies": 5676,
      "Mist": 5677,
      "Open": 5678,
      "Pers": 5679,
      "Peter": 5680,
      "PAG": 5681,
      "Proud": 5682,
      "Please": 5683,
      "Patience": 5684,
      "Rel": 5685,
      "Ratcliff": 5686,
      "Sus": 5687,
      "Sic": 5688,
      "Send": 5689,
      "Saw": 5690,
      "Touch": 5691,
      "Teach": 5692,
      "Ur": 5693,
      "Virt": 5694,
      "Villain": 5695,
      "Vouchsafe": 5696,
      "Wife": 5697,
      "Whiles": 5698,
      "ais": 5699,
      "act": 5700,
      "bon": 5701,
      "bot": 5702,
      "bow": 5703,
      "bid": 5704,
      "bation": 5705,
      "bearer": 5706,
      "board": 5707,
      "can": 5708,
      "cri": 5709,
      "cure": 5710,
      "cund": 5711,
      "comes": 5712,
      "ds": 5713,
      "dal": 5714,
      "dra": 5715,
      "dess": 5716,
      "door": 5717,
      "eve": 5718,
      "ece": 5719,
      "egr": 5720,
      "ebus": 5721,
      "fly": 5722,
      "from": 5723,
      "franch": 5724,
      "gy": 5725,
      "gentle": 5726,
      "gled": 5727,
      "gged": 5728,
      "groom": 5729,
      "horse": 5730,
      "ipt": 5731,
      "light": 5732,
      "last": 5733,
      "liz": 5734,
      "may": 5735,
      "nel": 5736,
      "new": 5737,
      "neath": 5738,
      "nicious": 5739,
      "ob": 5740,
      "oble": 5741,
      "overy": 5742,
      "phan": 5743,
      "pire": 5744,
      "ples": 5745,
      "portion": 5746,
      "rt": 5747,
      "rue": 5748,
      "rish": 5749,
      "ratch": 5750,
      "ranc": 5751,
      "sen": 5752,
      "tong": 5753,
      "ug": 5754,
      "uild": 5755,
      "ubs": 5756,
      "ukes": 5757,
      "vance": 5758,
      "vior": 5759,
      "wd": 5760,
      "wh": 5761,
      "wer": 5762,
      "wing": 5763,
      "were": 5764,
      "work": 5765,
      "weal": 5766,
      "when": 5767,
      "where": 5768,
      "water": 5769,
      "xes": 5770,
      "zed": 5771,
      "ĠAs": 5772,
      "Ġire": 5773,
      "ĠThen": 5774,
      "ĠNay": 5775,
      "Ġtest": 5776,
      "Ġtrow": 5777,
      "Ġtorn": 5778,
      "Ġtarry": 5779,
      "Ġtaking": 5780,
      "Ġtired": 5781,
      "Ġtumble": 5782,
      "Ġtakest": 5783,
      "Ġafore": 5784,
      "Ġaud": 5785,
      "oured": 5786,
      "Ġsau": 5787,
      "Ġsides": 5788,
      "Ġsorry": 5789,
      "Ġmir": 5790,
      "Ġmil": 5791,
      "Ġmiles": 5792,
      "inu": 5793,
      "inest": 5794,
      "Ġwet": 5795,
      "Ġwore": 5796,
      "Ġward": 5797,
      "Ġwakes": 5798,
      "Ġwipe": 5799,
      "Ġwilful": 5800,
      "reme": 5801,
      "reason": 5802,
      "has": 5803,
      "haeth": 5804,
      "Ġbon": 5805,
      "Ġbay": 5806,
      "Ġbul": 5807,
      "Ġburd": 5808,
      "Ġbought": 5809,
      "Ġbishop": 5810,
      "orter": 5811,
      "orough": 5812,
      "oricles": 5813,
      "isk": 5814,
      "isher": 5815,
      "isome": 5816,
      "ishes": 5817,
      "Ġfre": 5818,
      "Ġfan": 5819,
      "Ġfem": 5820,
      "Ġfold": 5821,
      "Ġfrant": 5822,
      "Ġfran": 5823,
      "Ġfingers": 5824,
      "erv": 5825,
      "erity": 5826,
      "erdit": 5827,
      "lling": 5828,
      "ital": 5829,
      "itting": 5830,
      "Ġdaint": 5831,
      "Ġdress": 5832,
      "Ġdumb": 5833,
      "Ġdash": 5834,
      "Ġchat": 5835,
      "Ġcat": 5836,
      "Ġcook": 5837,
      "Ġcrew": 5838,
      "Ġlower": 5839,
      "Ġlace": 5840,
      "Ġlinger": 5841,
      "Ġlatest": 5842,
      "essel": 5843,
      "Ġnar": 5844,
      "Ġnim": 5845,
      "Ġnourish": 5846,
      "Ġnupt": 5847,
      "Ġnamed": 5848,
      "Ġthie": 5849,
      "Ġthread": 5850,
      "Ġthrees": 5851,
      "Ġtoe": 5852,
      "Ġtower": 5853,
      "Ġhom": 5854,
      "Ġhorn": 5855,
      "Ġyes": 5856,
      "Ġpot": 5857,
      "Ġpow": 5858,
      "Ġpill": 5859,
      "Ġpant": 5860,
      "Ġpup": 5861,
      "Ġpush": 5862,
      "ĠIn": 5863,
      "Ġheigh": 5864,
      "ompl": 5865,
      "Ġgid": 5866,
      "Ġgas": 5867,
      "Ġgust": 5868,
      "Ġgame": 5869,
      "Ġgather": 5870,
      "Ġgulf": 5871,
      "ank": 5872,
      "stit": 5873,
      "stone": 5874,
      "sec": 5875,
      "Ġbeads": 5876,
      "cease": 5877,
      "cels": 5878,
      "Ġinv": 5879,
      "Ġinward": 5880,
      "Ġinquire": 5881,
      "Ġhall": 5882,
      "Ġhail": 5883,
      "ays": 5884,
      "uties": 5885,
      "Ġmew": 5886,
      "Ġmellow": 5887,
      "child": 5888,
      "Ġnoted": 5889,
      "Ġnotice": 5890,
      "Ġforces": 5891,
      "Ġforfeit": 5892,
      "Ġweal": 5893,
      "Ġweather": 5894,
      "Ġeight": 5895,
      "add": 5896,
      "adem": 5897,
      "adict": 5898,
      "herited": 5899,
      "ril": 5900,
      "rial": 5901,
      "rief": 5902,
      "Ġstem": 5903,
      "Ġstick": 5904,
      "Ġstaff": 5905,
      "entious": 5906,
      "Ġhist": 5907,
      "ghts": 5908,
      "uring": 5909,
      "Ġkites": 5910,
      "alter": 5911,
      "alks": 5912,
      "alais": 5913,
      "Ġrein": 5914,
      "Ġrece": 5915,
      "Ġliqu": 5916,
      "Ġlions": 5917,
      "rac": 5918,
      "raken": 5919,
      "Ġdeer": 5920,
      "idow": 5921,
      "idered": 5922,
      "asing": 5923,
      "Ġsooth": 5924,
      "Ġsoci": 5925,
      "Ġsolic": 5926,
      "hire": 5927,
      "hipp": 5928,
      "hions": 5929,
      "amy": 5930,
      "aming": 5931,
      "vertis": 5932,
      "Ġnoon": 5933,
      "Ġnoses": 5934,
      "Ġdole": 5935,
      "Ġdoves": 5936,
      "Ġdoors": 5937,
      "Ġdozen": 5938,
      "anders": 5939,
      "Ġsear": 5940,
      "Ġloathed": 5941,
      "ifth": 5942,
      "Ġourself": 5943,
      "Ġallies": 5944,
      "Ġsued": 5945,
      "Ġsung": 5946,
      "Ġsuper": 5947,
      "Ġsunder": 5948,
      "Ġsugg": 5949,
      "Ġsugar": 5950,
      "ĠCalais": 5951,
      "Ġspilt": 5952,
      "Ġspices": 5953,
      "Ġspurs": 5954,
      "Ġsprings": 5955,
      "ĠEliz": 5956,
      "Ġneglect": 5957,
      "Ġneglig": 5958,
      "hoebus": 5959,
      "Ġvi": 5960,
      "Ġvul": 5961,
      "Ġvast": 5962,
      "Ġvial": 5963,
      "Ġvessel": 5964,
      "thy": 5965,
      "this": 5966,
      "throw": 5967,
      "Ġshot": 5968,
      "Ġshout": 5969,
      "icle": 5970,
      "ustice": 5971,
      "astle": 5972,
      "Ġherbs": 5973,
      "Ġbliss": 5974,
      "Ġblock": 5975,
      "Ġblade": 5976,
      "Ġwhet": 5977,
      "Ġwheel": 5978,
      "Ġknaves": 5979,
      "Ġknocks": 5980,
      "arel": 5981,
      "Ġprating": 5982,
      "ĠGree": 5983,
      "Ġconc": 5984,
      "Ġconceive": 5985,
      "Ġgoods": 5986,
      "Ġgoodness": 5987,
      "ĠHector": 5988,
      "Forbid": 5989,
      "ĠLu": 5990,
      "ĠLook": 5991,
      "ively": 5992,
      "Ġcann": 5993,
      "Ġcanopy": 5994,
      "eping": 5995,
      "Ġamazed": 5996,
      "Ġsweat": 5997,
      "Ġswoon": 5998,
      "Ġusure": 5999,
      "Ġthereto": 6000,
      "umed": 6001,
      "uments": 6002,
      "Ġarise": 6003,
      "Ġarbit": 6004,
      "Ġtrim": 6005,
      "ĠBar": 6006,
      "ĠBraken": 6007,
      "Ġunm": 6008,
      "Ġunfe": 6009,
      "Ġunrest": 6010,
      "Ġunborn": 6011,
      "Ġunruly": 6012,
      "Ġherein": 6013,
      "ĠSTANLEY": 6014,
      "ately": 6015,
      "resent": 6016,
      "ressed": 6017,
      "Ġorphan": 6018,
      "Ġbru": 6019,
      "Ġrate": 6020,
      "Ġrans": 6021,
      "Ġrites": 6022,
      "Ġrising": 6023,
      "Ġrushes": 6024,
      "ĠWales": 6025,
      "Ġgrass": 6026,
      "Ġgraces": 6027,
      "Ġgraft": 6028,
      "aker": 6029,
      "cip": 6030,
      "cies": 6031,
      "Whether": 6032,
      "Ġworms": 6033,
      "Ġworshi": 6034,
      "Ġjot": 6035,
      "OMENES": 6036,
      "eliver": 6037,
      "Ġshoulders": 6038,
      "Ġmusty": 6039,
      "Ġseeks": 6040,
      "Ġsap": 6041,
      "Ġsaved": 6042,
      "Ġplan": 6043,
      "Ġplaints": 6044,
      "Ġplaces": 6045,
      "Ġdisl": 6046,
      "Ġdisorder": 6047,
      "Heart": 6048,
      "oyal": 6049,
      "Ġproclam": 6050,
      "Ins": 6051,
      "Infer": 6052,
      "Ġsomewhat": 6053,
      "Ġalar": 6054,
      "Ġaloud": 6055,
      "Ġalto": 6056,
      "Ġalso": 6057,
      "Ġaloof": 6058,
      "Ġheap": 6059,
      "ignior": 6060,
      "Thoughts": 6061,
      "Ġfoil": 6062,
      "ption": 6063,
      "ctise": 6064,
      "ĠPro": 6065,
      "ĠPlease": 6066,
      "ĠPatri": 6067,
      "ĠPercy": 6068,
      "ĠPembroke": 6069,
      "ĠPhaeth": 6070,
      "ĠPerdit": 6071,
      "ĠPhoebus": 6072,
      "Ġrode": 6073,
      "Ġroses": 6074,
      "Ġroaring": 6075,
      "Ġrocks": 6076,
      "Ġmarvell": 6077,
      "Ġdesc": 6078,
      "Ġflock": 6079,
      "Ġslip": 6080,
      "Ġslipp": 6081,
      "Ġhears": 6082,
      "Ġoffended": 6083,
      "Ġexclaim": 6084,
      "Ġexchange": 6085,
      "Ġwhereon": 6086,
      "Ġtelling": 6087,
      "Ġfearing": 6088,
      "Ġabuse": 6089,
      "Ġrig": 6090,
      "Ġride": 6091,
      "Ġrivers": 6092,
      "Ġripen": 6093,
      "ĠAh": 6094,
      "ĠAway": 6095,
      "Behold": 6096,
      "Ġqueens": 6097,
      "ĠDeath": 6098,
      "ĠDoricles": 6099,
      "Ġcler": 6100,
      "Ġgreatness": 6101,
      "Ġheavenly": 6102,
      "Ġsweeter": 6103,
      "Ġsweetly": 6104,
      "Ġpreced": 6105,
      "Ġprefer": 6106,
      "ĠMarch": 6107,
      "Norfolk": 6108,
      "Ġrail": 6109,
      "Ġrages": 6110,
      "Ġrasc": 6111,
      "Ġchival": 6112,
      "Ġscour": 6113,
      "Ġscratch": 6114,
      "Ġwayward": 6115,
      "Ġpresume": 6116,
      "Ġfriendship": 6117,
      "Ġcalled": 6118,
      "Ġadverse": 6119,
      "Ġadvertis": 6120,
      "Ġserious": 6121,
      "Ġwring": 6122,
      "Ġmoan": 6123,
      "Ġmoves": 6124,
      "Ġmoving": 6125,
      "Ġmoiety": 6126,
      "Ġworldly": 6127,
      "ĠJu": 6128,
      "ĠJun": 6129,
      "ĠJOHN": 6130,
      "ĠJesu": 6131,
      "perience": 6132,
      "Ġconspir": 6133,
      "Ġconsorted": 6134,
      "Ġconsumed": 6135,
      "Ġlieutenant": 6136,
      "lier": 6137,
      "ĠFlor": 6138,
      "ĠFranc": 6139,
      "Ġstays": 6140,
      "Ġkeys": 6141,
      "Ġperhaps": 6142,
      "Ġpernicious": 6143,
      "Ġbegu": 6144,
      "Ġbeget": 6145,
      "Ġearldom": 6146,
      "Ġreposs": 6147,
      "Ġrepetition": 6148,
      "Ġintegr": 6149,
      "Ġtried": 6150,
      "Ġrests": 6151,
      "Ġwhit": 6152,
      "Ġpeaceful": 6153,
      "Ġappell": 6154,
      "Ġapparel": 6155,
      "Ġimmediate": 6156,
      "Ġlevy": 6157,
      "Ġlewd": 6158,
      "Ġeverlast": 6159,
      "Ġcontro": 6160,
      "Ġcontem": 6161,
      "Ġcontract": 6162,
      "Ġhighway": 6163,
      "Ġhenceforth": 6164,
      "Ġcounted": 6165,
      "they": 6166,
      "Ġtrag": 6167,
      "Ġtrain": 6168,
      "Ġladyship": 6169,
      "Ġearthly": 6170,
      "Stanley": 6171,
      "Ġentrance": 6172,
      "Ġprivy": 6173,
      "udent": 6174,
      "Ġputting": 6175,
      "Ġglories": 6176,
      "Ġgloves": 6177,
      "Ġcompare": 6178,
      "Ġcomplex": 6179,
      "abeth": 6180,
      "Ġforty": 6181,
      "Ġsubd": 6182,
      "Ġsubstit": 6183,
      "Ġaccomp": 6184,
      "Ġroyalties": 6185,
      "ailing": 6186,
      "Ġminded": 6187,
      "Ġcousins": 6188,
      "Ġhomely": 6189,
      "oubly": 6190,
      "Ġmischief": 6191,
      "Ġcoz": 6192,
      "Ġcoat": 6193,
      "Ġcoal": 6194,
      "Ġcozen": 6195,
      "Ġmeaner": 6196,
      "ruct": 6197,
      "Ġgoddess": 6198,
      "Ġlightly": 6199,
      "Ġconfines": 6200,
      "Ġconfusion": 6201,
      "Ġconfidence": 6202,
      "twould": 6203,
      "Ġcaused": 6204,
      "Ġcharges": 6205,
      "Ġfights": 6206,
      "Ġfighting": 6207,
      "Ġshowers": 6208,
      "Ġchances": 6209,
      "Ġsunshine": 6210,
      "being": 6211,
      "Ġrevenue": 6212,
      "Ġimposs": 6213,
      "Ġimpatience": 6214,
      "Ġfalcon": 6215,
      "Ġbridal": 6216,
      "Ġdevour": 6217,
      "Ġseeming": 6218,
      "posed": 6219,
      "Ġdroop": 6220,
      "Ġholding": 6221,
      "enerate": 6222,
      "Ġdoubtful": 6223,
      "Ġcharac": 6224,
      "Ġhuman": 6225,
      "Any": 6226,
      "Ġdram": 6227,
      "Ġstrive": 6228,
      "Ġaffright": 6229,
      "Ġaffords": 6230,
      "Ġafflict": 6231,
      "Ġdreamt": 6232,
      "Ġsounds": 6233,
      "Ġsounded": 6234,
      "Ġsoundly": 6235,
      "Although": 6236,
      "Ġcomfortable": 6237,
      "Ġbreaks": 6238,
      "pense": 6239,
      "shining": 6240,
      "Ġstraw": 6241,
      "chers": 6242,
      "Ġboon": 6243,
      "Ġyields": 6244,
      "Ġyielding": 6245,
      "Ġcourteous": 6246,
      "Ġmurdered": 6247,
      "Ġdischarged": 6248,
      "Ġunderneath": 6249,
      "Ġrecover": 6250,
      "Ġtenderly": 6251,
      "Ġtenderness": 6252,
      "upon": 6253,
      "Ġfootman": 6254,
      "Ġcommonweal": 6255,
      "Ġsadly": 6256,
      "Ġcrim": 6257,
      "Ġcrush": 6258,
      "Ġrequire": 6259,
      "Ġrequires": 6260,
      "Ġjocund": 6261,
      "Ġcurt": 6262,
      "Ġcrying": 6263,
      "Ġgrew": 6264,
      "Ġbeats": 6265,
      "Ġsupply": 6266,
      "Ġsupport": 6267,
      "Ġsuppli": 6268,
      "Ġvirtues": 6269,
      "Ġcommands": 6270,
      "Ġcommanding": 6271,
      "Ġtemple": 6272,
      "Ġmonster": 6273,
      "Ġkisses": 6274,
      "Ġnobler": 6275,
      "Ġforest": 6276,
      "Ġdeputy": 6277,
      "Ġstrengthen": 6278,
      "voided": 6279,
      "Ġairy": 6280,
      "Ġboldness": 6281,
      "Ġtribune": 6282,
      "Comes": 6283,
      "Commit": 6284,
      "suing": 6285,
      "Ġchop": 6286,
      "Ġchose": 6287,
      "Ġchosen": 6288,
      "Ġinconstant": 6289,
      "Ġinstruct": 6290,
      "Ġdespised": 6291,
      "Ġterrit": 6292,
      "Ġsingular": 6293,
      "Ġdivided": 6294,
      "Ġdivision": 6295,
      "Ġasking": 6296,
      "Ġbreasts": 6297,
      "Ġguiltless": 6298,
      "Becomes": 6299,
      "Ġwatery": 6300,
      "Ġmockery": 6301,
      "Ġdisturb": 6302,
      "Ġdistressed": 6303,
      "Ġregiment": 6304,
      "Ġsumm": 6305,
      "Ġgrieved": 6306,
      "Read": 6307,
      "Ġhanging": 6308,
      "Ġharmless": 6309,
      "Happ": 6310,
      "Ġsignify": 6311,
      "Ġlamentation": 6312,
      "Ġinterrupt": 6313,
      "Ġinterchange": 6314,
      "Ġundo": 6315,
      "Ġreadiness": 6316,
      "Ġvisage": 6317,
      "Ġveil": 6318,
      "Ġskulls": 6319,
      "Ġdishon": 6320,
      "Ġcowardice": 6321,
      "Ġstirring": 6322,
      "Ġexecut": 6323,
      "Ġexecute": 6324,
      "Ġscorns": 6325,
      "Swear": 6326,
      "Ġblessings": 6327,
      "Ġprotect": 6328,
      "gued": 6329,
      "Ġwaves": 6330,
      "Ġfeasts": 6331,
      "Ġpractise": 6332,
      "ĠCaptain": 6333,
      "Ġcheerly": 6334,
      "Ġsatisfy": 6335,
      "Ġbowl": 6336,
      "Ġblemish": 6337,
      "Ġlimits": 6338,
      "Ġsuccor": 6339,
      "Ġexpedition": 6340,
      "Ġdestiny": 6341,
      "Ġsafely": 6342,
      "Ġsafeguard": 6343,
      "Arm": 6344,
      "Ġapart": 6345,
      "Ġapace": 6346,
      "Ġbroad": 6347,
      "Ġdarkness": 6348,
      "Ġpitied": 6349,
      "Ġreigns": 6350,
      "Above": 6351,
      "Ġfamiliar": 6352,
      "Ġinsol": 6353,
      "Ġinsulting": 6354,
      "Ġinsinu": 6355,
      "Ġembass": 6356,
      "Ġliberal": 6357,
      "Ġchamberlain": 6358,
      "piring": 6359,
      "Ġutmost": 6360,
      "Ġignoble": 6361,
      "Ġmidst": 6362,
      "Ġmildness": 6363,
      "Ġburst": 6364,
      "standing": 6365,
      "Ġproceedings": 6366,
      "Ġsuccession": 6367,
      "Ġfaintly": 6368,
      "Ġlenity": 6369,
      "Ġstops": 6370,
      "Ġextreme": 6371,
      "Ġservants": 6372,
      "Ġmutiny": 6373,
      "Ġbending": 6374,
      "Ġeasily": 6375,
      "Ġcaptive": 6376,
      "Ġtriumphs": 6377,
      "Meantime": 6378,
      "headed": 6379,
      "Ġmountain": 6380,
      "Ġmourning": 6381,
      "Ġunfold": 6382,
      "Ġsafer": 6383,
      "Ġprosperity": 6384,
      "Ġgladly": 6385,
      "Disp": 6386,
      "Ġthroats": 6387,
      "Ġdebase": 6388,
      "Ġknightly": 6389,
      "Ġknighthood": 6390,
      "Ġcontradict": 6391,
      "Ġbridegroom": 6392,
      "Ġscarcely": 6393,
      "Ġbigger": 6394,
      "Ġamongst": 6395,
      "Ġunluck": 6396,
      "Ġdrift": 6397,
      "Ġdwells": 6398,
      "Ġcreate": 6399,
      "Ġcrept": 6400,
      "Ġunworthy": 6401,
      "Ġjealousies": 6402,
      "Ġpleasant": 6403,
      "Ġtreachery": 6404,
      "Ġpursued": 6405,
      "Ġgreeting": 6406,
      "Ġutterance": 6407,
      "Amongst": 6408,
      "Ġlists": 6409,
      "Ġrewards": 6410,
      "Ġtrembles": 6411,
      "Ġtyrannous": 6412,
      "Ġafraid": 6413,
      "Ġphysician": 6414,
      "Ġgifts": 6415,
      "Ġghostly": 6416,
      "Ġinclination": 6417,
      "Ġdearer": 6418,
      "Ġpronounced": 6419,
      "Ġprovide": 6420,
      "Ġentertainment": 6421,
      "Ġinfected": 6422,
      "Ġcracking": 6423,
      "shapen": 6424,
      "Ġesp": 6425,
      "Ġfeeding": 6426,
      "Ġstarve": 6427,
      "Ġperjury": 6428,
      "Ġcompassion": 6429,
      "Ġaccusation": 6430,
      "Consider": 6431,
      "Gentlemen": 6432,
      "glass": 6433,
      "Ġowes": 6434,
      "Ġforsake": 6435,
      "Ġeleven": 6436,
      "Ġtroublous": 6437,
      "Ġtempted": 6438,
      "Ġinnocence": 6439,
      "ĠAntiates": 6440,
      "Perhaps": 6441,
      "Small": 6442,
      "Ġtimeless": 6443,
      "Ġdiadem": 6444,
      "Ġsupreme": 6445,
      "Ġarrived": 6446,
      "Ġtransp": 6447,
      "ĠScotland": 6448,
      "Ġremedy": 6449,
      "Ġremedies": 6450,
      "Ġcouncil": 6451,
      "Ġcouncils": 6452,
      "Ġassistance": 6453,
      "Ġcircumstance": 6454,
      "Ġwhispering": 6455,
      "Ġworthily": 6456,
      "favour": 6457,
      "Ġtutor": 6458,
      "Ġmoody": 6459,
      "Ġmagist": 6460,
      "Ġwinged": 6461,
      "Ġfiend": 6462,
      "Ġfrozen": 6463,
      "Ġnails": 6464,
      "Ġhigher": 6465,
      "Ġpedlar": 6466,
      "Ġbefits": 6467,
      "Ġhaughty": 6468,
      "Ġsteward": 6469,
      "Ġsplit": 6470,
      "Ġshrink": 6471,
      "Ġjewel": 6472,
      "Ġclimb": 6473,
      "Ġimmortal": 6474,
      "Ġrescue": 6475,
      "Ġdragon": 6476,
      "Ġrecompense": 6477,
      "Ġcorrection": 6478,
      "Ġextremes": 6479,
      "England": 6480,
      "Remember": 6481,
      "Ġcentre": 6482,
      "Ġcredit": 6483,
      "Ġpopular": 6484,
      "Ġbereft": 6485,
      "Ġstudy": 6486,
      "Ġshelter": 6487,
      "Ġbankrupt": 6488,
      "Ġsmiling": 6489,
      "pleased": 6490,
      "Ġprettiest": 6491,
      "Ġestimation": 6492,
      "Ġpenitent": 6493,
      "Ġescape": 6494,
      "ĠWelshmen": 6495,
      "Break": 6496,
      "Follow": 6497,
      "Murder": 6498,
      "Pursu": 6499,
      "URREY": 6500,
      "doing": 6501,
      "whelm": 6502,
      "Ġsurpr": 6503,
      "Ġfarther": 6504,
      "Ġfurnish": 6505,
      "Ġcensure": 6506,
      "Ġpestilence": 6507,
      "Ġugly": 6508,
      "ĠEmilia": 6509,
      "Ġanchor": 6510,
      "Ġvolume": 6511,
      "Ġvirgin": 6512,
      "Ġconsequence": 6513,
      "Ġunwilling": 6514,
      "Ġrancour": 6515,
      "Ġdisobed": 6516,
      "Ġmarshal": 6517,
      "Ġplebeians": 6518,
      "Ġtrifles": 6519,
      "Ġharlot": 6520,
      "Ġimperial": 6521,
      "Ġcounsellor": 6522,
      "Ġmerrily": 6523,
      "Ġabsolute": 6524,
      "Ġpuissant": 6525,
      "Ġconcluded": 6526,
      "BONA": 6527,
      "CLEOMENES": 6528,
      "EMILIA": 6529,
      "Gainst": 6530,
      "Grandam": 6531,
      "Persu": 6532,
      "PAGE": 6533,
      "Urge": 6534,
      "Ġfemale": 6535,
      "Ġfrantic": 6536,
      "Ġfrank": 6537,
      "Ġnarrow": 6538,
      "Ġnuptial": 6539,
      "Ġpupil": 6540,
      "omplish": 6541,
      "Ġgiddy": 6542,
      "Ġsolicit": 6543,
      "ĠElizabeth": 6544,
      "ĠBrakenbury": 6545,
      "Ġaltogether": 6546,
      "ĠPatrician": 6547,
      "ĠPhaethon": 6548,
      "ĠPerdita": 6549,
      "Ġprecedent": 6550,
      "Ġadvertised": 6551,
      "ĠFrancis": 6552,
      "Ġrepossess": 6553,
      "Ġintegrity": 6554,
      "Ġcommonwealth": 6555,
      "Ġterritories": 6556,
      "'--": 6557,
      "Ac": 6558,
      "Again": 6559,
      "Aufidius": 6560,
      "ALIS": 6561,
      "BL": 6562,
      "Bad": 6563,
      "Best": 6564,
      "Breat": 6565,
      "Bound": 6566,
      "Back": 6567,
      "Bold": 6568,
      "Brave": 6569,
      "Beshrew": 6570,
      "Che": 6571,
      "Chi": 6572,
      "Citizen": 6573,
      "Camillo": 6574,
      "Cursed": 6575,
      "Content": 6576,
      "Charge": 6577,
      "Dest": 6578,
      "DIO": 6579,
      "End": 6580,
      "EAR": 6581,
      "Fill": 6582,
      "Fly": 6583,
      "Fore": 6584,
      "Fall": 6585,
      "Fool": 6586,
      "Fetch": 6587,
      "Gir": 6588,
      "Gold": 6589,
      "Gloucester": 6590,
      "Given": 6591,
      "Har": 6592,
      "Hard": 6593,
      "Holy": 6594,
      "Ill": 6595,
      "Imp": 6596,
      "Jesu": 6597,
      "Less": 6598,
      "Lead": 6599,
      "Man": 6600,
      "Master": 6601,
      "Mount": 6602,
      "Masters": 6603,
      "Night": 6604,
      "Oxford": 6605,
      "Pr": 6606,
      "Part": 6607,
      "Page": 6608,
      "Perc": 6609,
      "Pale": 6610,
      "Ren": 6611,
      "Rest": 6612,
      "Run": 6613,
      "Sl": 6614,
      "Sin": 6615,
      "Sen": 6616,
      "Sad": 6617,
      "Sel": 6618,
      "Soul": 6619,
      "Sham": 6620,
      "Seal": 6621,
      "Sleep": 6622,
      "Tra": 6623,
      "Time": 6624,
      "Talk": 6625,
      "Tullus": 6626,
      "Uly": 6627,
      "UNT": 6628,
      "Worse": 6629,
      "Women": 6630,
      "acc": 6631,
      "acious": 6632,
      "aches": 6633,
      "avish": 6634,
      "bes": 6635,
      "bur": 6636,
      "bra": 6637,
      "bell": 6638,
      "bred": 6639,
      "bham": 6640,
      "cr": 6641,
      "cons": 6642,
      "cock": 6643,
      "cured": 6644,
      "counter": 6645,
      "content": 6646,
      "dur": 6647,
      "down": 6648,
      "dict": 6649,
      "duce": 6650,
      "ev": 6651,
      "eks": 6652,
      "ext": 6653,
      "fection": 6654,
      "gom": 6655,
      "gea": 6656,
      "gone": 6657,
      "grown": 6658,
      "gage": 6659,
      "gative": 6660,
      "govern": 6661,
      "hill": 6662,
      "iod": 6663,
      "iving": 6664,
      "iber": 6665,
      "ially": 6666,
      "jud": 6667,
      "lo": 6668,
      "lay": 6669,
      "lance": 6670,
      "lorn": 6671,
      "liness": 6672,
      "longs": 6673,
      "loves": 6674,
      "min": 6675,
      "mpt": 6676,
      "matter": 6677,
      "miss": 6678,
      "mary": 6679,
      "maz": 6680,
      "minous": 6681,
      "mission": 6682,
      "mongst": 6683,
      "oqu": 6684,
      "off": 6685,
      "occ": 6686,
      "ph": 6687,
      "pit": 6688,
      "part": 6689,
      "pter": 6690,
      "past": 6691,
      "post": 6692,
      "pray": 6693,
      "picious": 6694,
      "proud": 6695,
      "pril": 6696,
      "roth": 6697,
      "roop": 6698,
      "roof": 6699,
      "say": 6700,
      "sil": 6701,
      "song": 6702,
      "sick": 6703,
      "sman": 6704,
      "such": 6705,
      "sby": 6706,
      "somet": 6707,
      "thi": 6708,
      "take": 6709,
      "tree": 6710,
      "tune": 6711,
      "tered": 6712,
      "tsey": 6713,
      "uish": 6714,
      "uity": 6715,
      "uced": 6716,
      "uiced": 6717,
      "vill": 6718,
      "vil": 6719,
      "vice": 6720,
      "ws": 6721,
      "why": 6722,
      "wench": 6723,
      "worth": 6724,
      "women": 6725,
      "zy": 6726,
      "zwater": 6727,
      "Ġ&": 6728,
      "ĠĠ": 6729,
      "Ġir": 6730,
      "ĠNo": 6731,
      "ĠThy": 6732,
      "ĠThese": 6733,
      "ĠUly": 6734,
      "Ġtou": 6735,
      "Ġtum": 6736,
      "Ġtreat": 6737,
      "Ġtire": 6738,
      "Ġtatter": 6739,
      "Ġtunes": 6740,
      "Ġtents": 6741,
      "Ġau": 6742,
      "Ġack": 6743,
      "Ġaged": 6744,
      "Ġape": 6745,
      "Ġaery": 6746,
      "Ġsat": 6747,
      "Ġsith": 6748,
      "Ġsly": 6749,
      "Ġsess": 6750,
      "Ġsine": 6751,
      "Ġsurn": 6752,
      "Ġsixt": 6753,
      "Ġsands": 6754,
      "Ġshop": 6755,
      "Ġsongs": 6756,
      "Ġsiege": 6757,
      "Ġmow": 6758,
      "Ġmom": 6759,
      "Ġmas": 6760,
      "Ġmould": 6761,
      "Ġmast": 6762,
      "Ġmant": 6763,
      "Ġmap": 6764,
      "Ġmass": 6765,
      "Ġmuse": 6766,
      "inent": 6767,
      "inish": 6768,
      "inance": 6769,
      "Ġware": 6770,
      "Ġwester": 6771,
      "Ġwaken": 6772,
      "Ġwaked": 6773,
      "Ġwalks": 6774,
      "Ġwhipp": 6775,
      "reth": 6776,
      "reef": 6777,
      "rehen": 6778,
      "hast": 6779,
      "habit": 6780,
      "havior": 6781,
      "Ġbill": 6782,
      "Ġbust": 6783,
      "Ġbol": 6784,
      "Ġbone": 6785,
      "Ġbind": 6786,
      "Ġbide": 6787,
      "Ġbier": 6788,
      "Ġbows": 6789,
      "Ġbale": 6790,
      "Ġbench": 6791,
      "isle": 6792,
      "isons": 6793,
      "Ġfet": 6794,
      "Ġfence": 6795,
      "Ġfret": 6796,
      "Ġfount": 6797,
      "Ġfester": 6798,
      "Ġfees": 6799,
      "Ġfront": 6800,
      "Ġfickle": 6801,
      "erus": 6802,
      "erves": 6803,
      "eria": 6804,
      "erwhelm": 6805,
      "lled": 6806,
      "itor": 6807,
      "itors": 6808,
      "itiff": 6809,
      "itzwater": 6810,
      "Ġost": 6811,
      "Ġoce": 6812,
      "Ġominous": 6813,
      "Ġder": 6814,
      "Ġdom": 6815,
      "Ġdine": 6816,
      "Ġdall": 6817,
      "Ġdame": 6818,
      "Ġdun": 6819,
      "Ġdiet": 6820,
      "Ġdried": 6821,
      "Ġdastard": 6822,
      "Ġdaring": 6823,
      "Ġduteous": 6824,
      "Ġced": 6825,
      "Ġcord": 6826,
      "Ġcus": 6827,
      "Ġcand": 6828,
      "Ġcave": 6829,
      "Ġcurd": 6830,
      "Ġcuck": 6831,
      "Ġcool": 6832,
      "Ġcropp": 6833,
      "Ġlain": 6834,
      "Ġlame": 6835,
      "Ġlink": 6836,
      "Ġlass": 6837,
      "Ġlends": 6838,
      "Ġloose": 6839,
      "ening": 6840,
      "enches": 6841,
      "Ġnon": 6842,
      "Ġnigh": 6843,
      "Ġnaught": 6844,
      "Ġniece": 6845,
      "Ġnearer": 6846,
      "arr": 6847,
      "arison": 6848,
      "arling": 6849,
      "arated": 6850,
      "Ġthres": 6851,
      "Ġthirst": 6852,
      "Ġthief": 6853,
      "Ġthreef": 6854,
      "Ġtoss": 6855,
      "Ġtonight": 6856,
      "Ġtoads": 6857,
      "Ġtoys": 6858,
      "Ġhy": 6859,
      "Ġhill": 6860,
      "Ġhood": 6861,
      "Ġhills": 6862,
      "once": 6863,
      "onest": 6864,
      "onus": 6865,
      "Ġyew": 6866,
      "Ġyester": 6867,
      "Ġpour": 6868,
      "Ġpear": 6869,
      "Ġpul": 6870,
      "Ġpere": 6871,
      "Ġpatter": 6872,
      "Ġphil": 6873,
      "Ġpens": 6874,
      "Ġpotion": 6875,
      "Ġpines": 6876,
      "Ġporter": 6877,
      "ĠIrish": 6878,
      "Ġheel": 6879,
      "vet": 6880,
      "ingale": 6881,
      "oming": 6882,
      "omenes": 6883,
      "Ġgay": 6884,
      "Ġgear": 6885,
      "Ġgilt": 6886,
      "Ġgild": 6887,
      "Ġgorge": 6888,
      "Ġgaoler": 6889,
      "aned": 6890,
      "anks": 6891,
      "stood": 6892,
      "strel": 6893,
      "atic": 6894,
      "atage": 6895,
      "atory": 6896,
      "atiate": 6897,
      "see": 6898,
      "seth": 6899,
      "Ġbeho": 6900,
      "Ġinve": 6901,
      "Ġinhabit": 6902,
      "Ġhag": 6903,
      "lehill": 6904,
      "ldren": 6905,
      "edeem": 6906,
      "ediment": 6907,
      "utus": 6908,
      "utches": 6909,
      "Ġmeas": 6910,
      "Ġmeant": 6911,
      "ims": 6912,
      "imple": 6913,
      "iments": 6914,
      "imony": 6915,
      "ourt": 6916,
      "Ġnotwith": 6917,
      "keep": 6918,
      "Ġforso": 6919,
      "Ġforlorn": 6920,
      "Ġweb": 6921,
      "Ġweed": 6922,
      "Ġwears": 6923,
      "Ġweek": 6924,
      "Ġeg": 6925,
      "Ġegg": 6926,
      "ading": 6927,
      "adise": 6928,
      "adventure": 6929,
      "hertsey": 6930,
      "rion": 6931,
      "rived": 6932,
      "Ġstart": 6933,
      "Ġstint": 6934,
      "Ġstocks": 6935,
      "Ġstarts": 6936,
      "enting": 6937,
      "urks": 6938,
      "urps": 6939,
      "Ġrent": 6940,
      "Ġrender": 6941,
      "Ġrevers": 6942,
      "Ġresemb": 6943,
      "Ġrevell": 6944,
      "Ġliar": 6945,
      "Ġliars": 6946,
      "Ġlikes": 6947,
      "rails": 6948,
      "raught": 6949,
      "iders": 6950,
      "asy": 6951,
      "asci": 6952,
      "ashy": 6953,
      "asite": 6954,
      "Ġsolace": 6955,
      "ored": 6956,
      "Ġascend": 6957,
      "Ġaspiring": 6958,
      "roach": 6959,
      "rosby": 6960,
      "amine": 6961,
      "estable": 6962,
      "vering": 6963,
      "verty": 6964,
      "Ġnod": 6965,
      "Ġdoit": 6966,
      "Ġdoct": 6967,
      "ĠRo": 6968,
      "ĠRoss": 6969,
      "Ġbutt": 6970,
      "Ġbutter": 6971,
      "Together": 6972,
      "Ġlock": 6973,
      "Ġloins": 6974,
      "Ġlocks": 6975,
      "ifest": 6976,
      "ific": 6977,
      "gels": 6978,
      "arters": 6979,
      "Ġsues": 6980,
      "Ġsuits": 6981,
      "ĠCot": 6982,
      "ĠCle": 6983,
      "ĠCastle": 6984,
      "ĠChertsey": 6985,
      "ĠCrosby": 6986,
      "hance": 6987,
      "Ġfails": 6988,
      "Ġfabric": 6989,
      "Ġspear": 6990,
      "Ġspec": 6991,
      "Ġspurn": 6992,
      "Ġsparing": 6993,
      "Ġspiders": 6994,
      "ĠEven": 6995,
      "Ġann": 6996,
      "Ġangu": 6997,
      "Ġantic": 6998,
      "Ġangels": 6999,
      "terate": 7000,
      "hos": 7001,
      "ighton": 7002,
      "Ġvar": 7003,
      "Ġvest": 7004,
      "Ġvass": 7005,
      "Ġvouch": 7006,
      "ulous": 7007,
      "ulation": 7008,
      "thw": 7009,
      "thren": 7010,
      "thwith": 7011,
      "ĠMab": 7012,
      "ĠMistress": 7013,
      "Ġshine": 7014,
      "Ġshower": 7015,
      "Ġshines": 7016,
      "Ġshouts": 7017,
      "ican": 7018,
      "icate": 7019,
      "icide": 7020,
      "icester": 7021,
      "usters": 7022,
      "Ġwhatsoever": 7023,
      "Ġupper": 7024,
      "Ġblown": 7025,
      "ending": 7026,
      "ecess": 7027,
      "ecially": 7028,
      "Ġknit": 7029,
      "Ġatone": 7030,
      "olks": 7031,
      "Ġmanly": 7032,
      "Ġmankind": 7033,
      "Ġmangled": 7034,
      "Whate": 7035,
      "Ġtheme": 7036,
      "ĠGentle": 7037,
      "ĠGuild": 7038,
      "Ġconver": 7039,
      "Ġconvers": 7040,
      "ĠHave": 7041,
      "ĠHerc": 7042,
      "Forget": 7043,
      "Forbear": 7044,
      "Forgive": 7045,
      "Forthwith": 7046,
      "vens": 7047,
      "venient": 7048,
      "ĠLud": 7049,
      "ĠLove": 7050,
      "ĠLeave": 7051,
      "ĠLamm": 7052,
      "Ġcanker": 7053,
      "ĠOf": 7054,
      "ĠOur": 7055,
      "ersha": 7056,
      "ershire": 7057,
      "Ġamity": 7058,
      "Ġamended": 7059,
      "Ġamorous": 7060,
      "eminate": 7061,
      "Ġusing": 7062,
      "eress": 7063,
      "Ġarch": 7064,
      "Ġarray": 7065,
      "Ġtrades": 7066,
      "Ġtrudge": 7067,
      "ĠBoy": 7068,
      "ĠBret": 7069,
      "ĠBrist": 7070,
      "ĠBrand": 7071,
      "ĠBishop": 7072,
      "Ġunple": 7073,
      "Ġunlike": 7074,
      "Ġunaw": 7075,
      "Ġunpro": 7076,
      "Ġgoest": 7077,
      "ĠSay": 7078,
      "ĠSee": 7079,
      "ĠSix": 7080,
      "ĠSignior": 7081,
      "ĠSURREY": 7082,
      "ĠSALIS": 7083,
      "resh": 7084,
      "quin": 7085,
      "quis": 7086,
      "quess": 7087,
      "Ġbrittle": 7088,
      "Ġrood": 7089,
      "Ġrush": 7090,
      "Ġroof": 7091,
      "igonus": 7092,
      "onging": 7093,
      "ĠWh": 7094,
      "ĠWould": 7095,
      "ĠWife": 7096,
      "ĠWelcome": 7097,
      "ĠWalter": 7098,
      "Ġknowing": 7099,
      "aks": 7100,
      "hyme": 7101,
      "uned": 7102,
      "Ġworser": 7103,
      "inking": 7104,
      "ophy": 7105,
      "ounded": 7106,
      "Ġlikeli": 7107,
      "elen": 7108,
      "elting": 7109,
      "Ġens": 7110,
      "Ġenfranch": 7111,
      "Ġhearth": 7112,
      "Ġsack": 7113,
      "Ġsails": 7114,
      "Ġplate": 7115,
      "Ġdisting": 7116,
      "Ġdispleasure": 7117,
      "owned": 7118,
      "Ġprover": 7119,
      "Ġproffer": 7120,
      "acks": 7121,
      "Ġpoverty": 7122,
      "Ġdaylight": 7123,
      "agate": 7124,
      "ĠPil": 7125,
      "ĠPlace": 7126,
      "ĠPrithee": 7127,
      "Ġrogue": 7128,
      "izard": 7129,
      "izel": 7130,
      "Ġmarr": 7131,
      "Ġmarquess": 7132,
      "Ġflat": 7133,
      "Ġflame": 7134,
      "Ġflag": 7135,
      "Ġfliers": 7136,
      "Ġoffences": 7137,
      "Ġexha": 7138,
      "Ġexperience": 7139,
      "Ġbrethren": 7140,
      "ĠVen": 7141,
      "Ġabod": 7142,
      "Ġaboard": 7143,
      "Ġridd": 7144,
      "ffic": 7145,
      "Ġquarter": 7146,
      "Ġarticles": 7147,
      "ĠAmaz": 7148,
      "ĠApril": 7149,
      "Ġleap": 7150,
      "Ġpartake": 7151,
      "Ġpartner": 7152,
      "ĠTurks": 7153,
      "bering": 7154,
      "Ġnewly": 7155,
      "Ġnobleman": 7156,
      "Ġfairies": 7157,
      "ĠDid": 7158,
      "ĠDion": 7159,
      "ĠDian": 7160,
      "ĠDelp": 7161,
      "oughby": 7162,
      "Ġclap": 7163,
      "Ġarmed": 7164,
      "sses": 7165,
      "Ġgreatly": 7166,
      "Ġnightly": 7167,
      "Ġnightingale": 7168,
      "ccustom": 7169,
      "Ġsweets": 7170,
      "Ġsweeten": 7171,
      "Ġpred": 7172,
      "Ġrace": 7173,
      "Ġrabble": 7174,
      "Ġragged": 7175,
      "Ġscold": 7176,
      "Ġscars": 7177,
      "Ġscape": 7178,
      "Ġscouts": 7179,
      "Ġpresum": 7180,
      "Ġpresses": 7181,
      "Ġprescri": 7182,
      "Ġadop": 7183,
      "Ġadorn": 7184,
      "Ġadult": 7185,
      "Ġadmit": 7186,
      "Ġwrang": 7187,
      "Ġcrowned": 7188,
      "Thank": 7189,
      "Ġmoe": 7190,
      "Ġmoans": 7191,
      "Ġmolehill": 7192,
      "Ġpeer": 7193,
      "Ġpeck": 7194,
      "ĠJud": 7195,
      "ĠJerus": 7196,
      "Ġconsort": 7197,
      "Ġotherwise": 7198,
      "ĠFifth": 7199,
      "Ġpermit": 7200,
      "Ġperfection": 7201,
      "Ġperiod": 7202,
      "Ġlongs": 7203,
      "Ġlongest": 7204,
      "Ġhole": 7205,
      "Ġhoard": 7206,
      "Ġgrat": 7207,
      "Ġgratis": 7208,
      "Ġgrub": 7209,
      "Ġremoved": 7210,
      "Ġremote": 7211,
      "Ġpledge": 7212,
      "Ġintends": 7213,
      "Ġinterest": 7214,
      "osophy": 7215,
      "Ġtricks": 7216,
      "Ġlazy": 7217,
      "ontes": 7218,
      "Ġrestrain": 7219,
      "forward": 7220,
      "ieldy": 7221,
      "Ġappointed": 7222,
      "Ġapprehen": 7223,
      "Ġmale": 7224,
      "Ġharbour": 7225,
      "sweet": 7226,
      "Ġimage": 7227,
      "Ġhoped": 7228,
      "Ġhopeless": 7229,
      "Ġstring": 7230,
      "Ġstrump": 7231,
      "Ġstratage": 7232,
      "Thyself": 7233,
      "them": 7234,
      "these": 7235,
      "their": 7236,
      "Ġtraged": 7237,
      "Ġmightst": 7238,
      "ertaint": 7239,
      "alem": 7240,
      "Ġhelms": 7241,
      "Ġtreas": 7242,
      "Ġendured": 7243,
      "Stir": 7244,
      "Stop": 7245,
      "Stab": 7246,
      "Stands": 7247,
      "Ġentrails": 7248,
      "Ġbackward": 7249,
      "Ġtongueless": 7250,
      "Ġresort": 7251,
      "chelor": 7252,
      "Ġglister": 7253,
      "Ġrightly": 7254,
      "Ġyounger": 7255,
      "Ġyoungest": 7256,
      "fts": 7257,
      "Ġpurged": 7258,
      "Ġfortnight": 7259,
      "Ġfortunate": 7260,
      "Ġsubmission": 7261,
      "Ġaccess": 7262,
      "Ġaccident": 7263,
      "Ġaccomplish": 7264,
      "Ġcheers": 7265,
      "Ġbragg": 7266,
      "Ġbrazen": 7267,
      "Ġeloqu": 7268,
      "Ġkilled": 7269,
      "ressing": 7270,
      "aching": 7271,
      "Ġbestow": 7272,
      "Ġmisc": 7273,
      "Ġcoals": 7274,
      "Ġneedy": 7275,
      "Ġneedless": 7276,
      "ruised": 7277,
      "Ġconfeder": 7278,
      "Ġhappier": 7279,
      "Ġelsewhere": 7280,
      "Ġcharm": 7281,
      "Ġcharters": 7282,
      "Ġlesson": 7283,
      "Ġstream": 7284,
      "Ġsuns": 7285,
      "Ġfalling": 7286,
      "ctions": 7287,
      "jects": 7288,
      "Ġfarm": 7289,
      "Ġfully": 7290,
      "Ġbuilt": 7291,
      "Ġbuzz": 7292,
      "Ġburial": 7293,
      "Ġimpart": 7294,
      "Ġimpose": 7295,
      "Ġimpression": 7296,
      "Ġimpudent": 7297,
      "Ġimpediment": 7298,
      "Ġbeside": 7299,
      "Ġbesides": 7300,
      "Ġbeseem": 7301,
      "oubted": 7302,
      "Ġdevils": 7303,
      "ivity": 7304,
      "Ġturning": 7305,
      "Ġturned": 7306,
      "Ġdances": 7307,
      "Ġdangers": 7308,
      "Clifford": 7309,
      "Ġproudest": 7310,
      "Ġbreaths": 7311,
      "Ġwronged": 7312,
      "Ġafterward": 7313,
      "Ġlaws": 7314,
      "Ġoverthrow": 7315,
      "Ġdoubted": 7316,
      "Ġchaf": 7317,
      "Ġchain": 7318,
      "Ġchains": 7319,
      "Ġhumane": 7320,
      "Ġsending": 7321,
      "Ġplaced": 7322,
      "Ġsleeps": 7323,
      "Ġsleepy": 7324,
      "people": 7325,
      "Ġstrife": 7326,
      "Ġstride": 7327,
      "holds": 7328,
      "Ġfalsely": 7329,
      "ancy": 7330,
      "Ġdefect": 7331,
      "Ġchid": 7332,
      "Ġvalue": 7333,
      "Ġpleaseth": 7334,
      "Ġtending": 7335,
      "Alone": 7336,
      "Ġwindow": 7337,
      "Ġdared": 7338,
      "ĠMontgom": 7339,
      "Ġbreaking": 7340,
      "Ġinfring": 7341,
      "Ġinfamy": 7342,
      "Ġstrain": 7343,
      "Ġcourts": 7344,
      "Ġpersons": 7345,
      "Ġbelieved": 7346,
      "Ġdiscords": 7347,
      "Ġdischarge": 7348,
      "Ġdiscovery": 7349,
      "Ġmerciful": 7350,
      "Ġmatters": 7351,
      "Ġwelcomes": 7352,
      "ĠJulius": 7353,
      "Ġwoeful": 7354,
      "Wouldst": 7355,
      "vention": 7356,
      "Ġthankful": 7357,
      "Ġdeeper": 7358,
      "Ġvillains": 7359,
      "Ġfooting": 7360,
      "Ġcrutch": 7361,
      "Ġrequite": 7362,
      "Ġrequired": 7363,
      "Ġwomanish": 7364,
      "Ġbush": 7365,
      "Ġbusy": 7366,
      "Ġcurs": 7367,
      "Ġbeaten": 7368,
      "Ġbeating": 7369,
      "Ġsooner": 7370,
      "Ġsoonest": 7371,
      "Ġsupple": 7372,
      "Ġsuppose": 7373,
      "Twill": 7374,
      "Twice": 7375,
      "Ġkissing": 7376,
      "Ġreturns": 7377,
      "Ġforefather": 7378,
      "Ġforerun": 7379,
      "Ġforetell": 7380,
      "Ġposts": 7381,
      "Ġposterns": 7382,
      "Ġposterity": 7383,
      "Ġbeauties": 7384,
      "Ġawry": 7385,
      "Ġhardy": 7386,
      "Ġharder": 7387,
      "Whoop": 7388,
      "Ġmurdering": 7389,
      "aws": 7390,
      "xton": 7391,
      "Ġstrongly": 7392,
      "Canst": 7393,
      "LORDS": 7394,
      "Mayor": 7395,
      "Ġmetal": 7396,
      "Ġcaitiff": 7397,
      "Ġplucks": 7398,
      "Ġconsuls": 7399,
      "ĠThus": 7400,
      "Ġinstead": 7401,
      "Ġwearing": 7402,
      "Ġassault": 7403,
      "Ġclouded": 7404,
      "Ġcounsels": 7405,
      "Ġterrible": 7406,
      "Ġdivines": 7407,
      "Ġparch": 7408,
      "Ġparlous": 7409,
      "Ġparasite": 7410,
      "Ġasked": 7411,
      "Ġprisoners": 7412,
      "Ġpoisonous": 7413,
      "rang": 7414,
      "range": 7415,
      "Ġlearned": 7416,
      "Ġsickly": 7417,
      "Ġminstrel": 7418,
      "Ġemulation": 7419,
      "Ġvictorious": 7420,
      "Ġdistemper": 7421,
      "Ġquarre": 7422,
      "Ġbites": 7423,
      "Ġregreet": 7424,
      "Ġsummon": 7425,
      "Ġbegging": 7426,
      "Revol": 7427,
      "Seeking": 7428,
      "Ġharmony": 7429,
      "Ġentreaty": 7430,
      "Prof": 7431,
      "Proclaim": 7432,
      "blind": 7433,
      "blown": 7434,
      "spo": 7435,
      "Ġsigns": 7436,
      "Ġwatchful": 7437,
      "Ġdireful": 7438,
      "Ġlamentations": 7439,
      "arlisle": 7440,
      "Ġintercept": 7441,
      "Ġintercess": 7442,
      "Ġinterchan": 7443,
      "Ġvisor": 7444,
      "Ġclosely": 7445,
      "Ġresolute": 7446,
      "voury": 7447,
      "Ġfrowning": 7448,
      "Ġstirs": 7449,
      "Ġmalign": 7450,
      "Ġmalicious": 7451,
      "Ġwasted": 7452,
      "Ġbaby": 7453,
      "Ġcarries": 7454,
      "emption": 7455,
      "mities": 7456,
      "Ġwidows": 7457,
      "Ġfeasting": 7458,
      "Ġpays": 7459,
      "Ġgotten": 7460,
      "Ġencomp": 7461,
      "Ġmoveables": 7462,
      "Ġleader": 7463,
      "Ġcheerful": 7464,
      "Ġcheerfully": 7465,
      "Trust": 7466,
      "Trans": 7467,
      "point": 7468,
      "Ġagony": 7469,
      "Ġsatisfaction": 7470,
      "Ġwisely": 7471,
      "Ġbarb": 7472,
      "Ġbarr": 7473,
      "ension": 7474,
      "Ġrebel": 7475,
      "Ġrebuke": 7476,
      "Ġredemption": 7477,
      "Ġexpost": 7478,
      "Ġdevilish": 7479,
      "ĠForrest": 7480,
      "Ġwondering": 7481,
      "Ġwonderful": 7482,
      "settled": 7483,
      "Ġurging": 7484,
      "Ġdooms": 7485,
      "ĠChurch": 7486,
      "Ġscarlet": 7487,
      "ĠEnglishman": 7488,
      "Ġconfession": 7489,
      "Ġbriefly": 7490,
      "Arise": 7491,
      "Mariner": 7492,
      "Ġapothecary": 7493,
      "Ġwisest": 7494,
      "Ġbroils": 7495,
      "Ġdarken": 7496,
      "Ġcleft": 7497,
      "Ġlamp": 7498,
      "Ġhideous": 7499,
      "Thinking": 7500,
      "ĠMercury": 7501,
      "Ġuncertain": 7502,
      "Ġtorments": 7503,
      "Ġfamish": 7504,
      "Ġobdur": 7505,
      "Ġdug": 7506,
      "Ġliberties": 7507,
      "ĠStaff": 7508,
      "Ġenjoin": 7509,
      "Ġcomplices": 7510,
      "nowledge": 7511,
      "ĠNept": 7512,
      "Ġsurm": 7513,
      "Ġsurvey": 7514,
      "Ġsurfeit": 7515,
      "Ġmidnight": 7516,
      "Ġfills": 7517,
      "Ġcapital": 7518,
      "Ġcaparison": 7519,
      "Ġsolely": 7520,
      "Ġprofit": 7521,
      "Ġapproved": 7522,
      "Ġapprobation": 7523,
      "Enough": 7524,
      "Enforce": 7525,
      "Environ": 7526,
      "acy": 7527,
      "butt": 7528,
      "sheathe": 7529,
      "Ġcreated": 7530,
      "Ġcreatures": 7531,
      "Ġinjured": 7532,
      "Ġinjurious": 7533,
      "Ġinjuries": 7534,
      "Ġinjustice": 7535,
      "Ġrefuge": 7536,
      "Ġbutchers": 7537,
      "Ġspoils": 7538,
      "Ġadvice": 7539,
      "Ġadvise": 7540,
      "Ġadvised": 7541,
      "Ġrespects": 7542,
      "Ġrespected": 7543,
      "Ġwinters": 7544,
      "Ġordering": 7545,
      "Ġbastardy": 7546,
      "Ġthreats": 7547,
      "Ġpuff": 7548,
      "Ġindirect": 7549,
      "Ġdegenerate": 7550,
      "Ġdemands": 7551,
      "Ġgrandfather": 7552,
      "Ġrobes": 7553,
      "Ġsecrets": 7554,
      "Ġwretchedness": 7555,
      "Ġenjoys": 7556,
      "Measure": 7557,
      "Meaning": 7558,
      "scape": 7559,
      "scaped": 7560,
      "Ġidly": 7561,
      "Ġmounting": 7562,
      "Ġfruits": 7563,
      "attling": 7564,
      "Ġunfit": 7565,
      "ĠWilloughby": 7566,
      "Ġmeditation": 7567,
      "Ġmodesty": 7568,
      "Ġwedded": 7569,
      "Ġlowly": 7570,
      "Ġevident": 7571,
      "Ġeffeminate": 7572,
      "Ġtroubled": 7573,
      "Ġslanderous": 7574,
      "Ġprevails": 7575,
      "Ġcounterpo": 7576,
      "Blind": 7577,
      "Ġbald": 7578,
      "Ġbachelor": 7579,
      "Ġfrail": 7580,
      "Ġframed": 7581,
      "Ġoccup": 7582,
      "Ġlustful": 7583,
      "Ġhunger": 7584,
      "Ġpikes": 7585,
      "Ġpiercing": 7586,
      "Ġshepherds": 7587,
      "Ġdismiss": 7588,
      "Ġfrighted": 7589,
      "Ġsmoking": 7590,
      "Ġprophecy": 7591,
      "Ġprophecies": 7592,
      "Play": 7593,
      "Ġfreshest": 7594,
      "Ġdriven": 7595,
      "Ġholid": 7596,
      "lected": 7597,
      "Ġstole": 7598,
      "Ġshriek": 7599,
      "Ġconclusion": 7600,
      "ĠAntigonus": 7601,
      "Ġpleasures": 7602,
      "therefore": 7603,
      "Ġgreetings": 7604,
      "Among": 7605,
      "Betwixt": 7606,
      "Ġshoes": 7607,
      "Ġshock": 7608,
      "Ġfeeble": 7609,
      "Ġgirls": 7610,
      "Ġgentry": 7611,
      "Ġgentler": 7612,
      "Ġdecree": 7613,
      "Ġvanqu": 7614,
      "Ġvanish": 7615,
      "Ġunkind": 7616,
      "Ġleanness": 7617,
      "Ġafoot": 7618,
      "Ġwolves": 7619,
      "Ġcalf": 7620,
      "sembly": 7621,
      "Ġeaten": 7622,
      "Ġseparated": 7623,
      "Ġnecessities": 7624,
      "Ġheaviness": 7625,
      "Ġdeserts": 7626,
      "Ġimagination": 7627,
      "Ġchastisement": 7628,
      "Ġconditions": 7629,
      "Ġministers": 7630,
      "Ġdelights": 7631,
      "Ġsolemnity": 7632,
      "Bearing": 7633,
      "Resc": 7634,
      "Resol": 7635,
      "Shame": 7636,
      "disp": 7637,
      "Ġverge": 7638,
      "Ġaims": 7639,
      "Ġlineal": 7640,
      "Ġlineaments": 7641,
      "Ġbeware": 7642,
      "Ġbewray": 7643,
      "Ġaccusations": 7644,
      "Ġunderstanding": 7645,
      "Ġdirectly": 7646,
      "Ġvexation": 7647,
      "Repair": 7648,
      "Ġsalute": 7649,
      "Ġwonders": 7650,
      "Ġbudge": 7651,
      "Ġobedient": 7652,
      "Ġdimm": 7653,
      "Ġdigest": 7654,
      "Ġdifference": 7655,
      "Ġforsook": 7656,
      "Ġelection": 7657,
      "Ġrelig": 7658,
      "Throng": 7659,
      "Ġloathsome": 7660,
      "ĠCobham": 7661,
      "Ġshunn": 7662,
      "Ġargument": 7663,
      "Ġarguments": 7664,
      "Ġadmir": 7665,
      "Ġhelmets": 7666,
      "Ġbootless": 7667,
      "Ġreconciled": 7668,
      "Ġcorruption": 7669,
      "Ġinnocents": 7670,
      "Ġacquit": 7671,
      "Advance": 7672,
      "Except": 7673,
      "Smile": 7674,
      "Ġtimorous": 7675,
      "Ġwagon": 7676,
      "Ġbasil": 7677,
      "Ġdetested": 7678,
      "Ġdetestable": 7679,
      "Ġthorns": 7680,
      "Ġshameless": 7681,
      "ĠHermione": 7682,
      "Ġswelling": 7683,
      "Ġunavoided": 7684,
      "Ġunaccustom": 7685,
      "Ġdisperse": 7686,
      "Richmond": 7687,
      "Write": 7688,
      "Witness": 7689,
      "Withal": 7690,
      "paration": 7691,
      "Ġsymp": 7692,
      "Ġfiends": 7693,
      "Ġfrost": 7694,
      "Ġlurk": 7695,
      "Ġlurking": 7696,
      "Ġhighest": 7697,
      "Ġports": 7698,
      "Ġbefal": 7699,
      "Ġlodged": 7700,
      "Ġcombat": 7701,
      "ĠWherefore": 7702,
      "Ġjewels": 7703,
      "Ġengross": 7704,
      "Ġenforcement": 7705,
      "Ġflinty": 7706,
      "Ġclimate": 7707,
      "Ġwitchcra": 7708,
      "Ġcorrect": 7709,
      "Ġsacrifice": 7710,
      "Ġextremest": 7711,
      "Accursed": 7712,
      "Condem": 7713,
      "Seize": 7714,
      "boding": 7715,
      "pretation": 7716,
      "Ġerrand": 7717,
      "Ġordinance": 7718,
      "Ġbuckle": 7719,
      "Ġfigure": 7720,
      "Ġnapkin": 7721,
      "Ġevents": 7722,
      "Ġstatutes": 7723,
      "Ġfactious": 7724,
      "Ġspotted": 7725,
      "Ġblasts": 7726,
      "ĠLeontes": 7727,
      "Ġunjustly": 7728,
      "Ġgossips": 7729,
      "Ġdisinherit": 7730,
      "Ġdisinherited": 7731,
      "ĠValeria": 7732,
      "Ġabhorr": 7733,
      "Ġappeared": 7734,
      "Ġresisted": 7735,
      "Ġcompanion": 7736,
      "Ġcompanions": 7737,
      "Ġbrawl": 7738,
      "Ġcoffin": 7739,
      "Ġattorneys": 7740,
      "Ġpersuade": 7741,
      "vocate": 7742,
      "Ġinstantly": 7743,
      "Ġrobbers": 7744,
      "Confess": 7745,
      "Caius": 7746,
      "Darest": 7747,
      "Evermore": 7748,
      "comfort": 7749,
      "ratitude": 7750,
      "Ġachieved": 7751,
      "Ġmoral": 7752,
      "Ġbaggage": 7753,
      "Ġgnaw": 7754,
      "Ġinheritance": 7755,
      "Ġreckon": 7756,
      "Ġdeformity": 7757,
      "Ġsparkling": 7758,
      "Ġancestors": 7759,
      "ĠSpeak": 7760,
      "Ġrumour": 7761,
      "ĠWestmin": 7762,
      "Ġdissembling": 7763,
      "Ġprodigal": 7764,
      "Ġfollies": 7765,
      "ĠPlashy": 7766,
      "Ġabundant": 7767,
      "Ġtrenches": 7768,
      "Ġinferior": 7769,
      "Ġdivorce": 7770,
      "Ġchampion": 7771,
      "Ġobsequies": 7772,
      "Ġdifferen": 7773,
      "Banish": 7774,
      "Deny": 7775,
      "Huntsman": 7776,
      "Mistake": 7777,
      "Touching": 7778,
      "Virtue": 7779,
      "Ġmirror": 7780,
      "Ġmilk": 7781,
      "Ġburden": 7782,
      "ervation": 7783,
      "Ġthieves": 7784,
      "Ġhomicide": 7785,
      "Ġpowder": 7786,
      "Ġhistory": 7787,
      "Ġreceipt": 7788,
      "Ġsociety": 7789,
      "Ġdoleful": 7790,
      "Ġsuperfl": 7791,
      "Ġvulgar": 7792,
      "ĠGreece": 7793,
      "Ġcannib": 7794,
      "Ġusurer": 7795,
      "Ġunfeigned": 7796,
      "Ġorphans": 7797,
      "Ġransom": 7798,
      "Ġworships": 7799,
      "Ġplanet": 7800,
      "Ġdisloyal": 7801,
      "Ġproclamation": 7802,
      "Ġalarum": 7803,
      "Ġmarvellous": 7804,
      "Ġexclaims": 7805,
      "Ġclergy": 7806,
      "Ġchivalry": 7807,
      "Ġscourge": 7808,
      "ĠJule": 7809,
      "ĠJuno": 7810,
      "Ġconspiracy": 7811,
      "ĠFlorizel": 7812,
      "Ġappellant": 7813,
      "Ġimmediately": 7814,
      "Ġtragic": 7815,
      "Ġsubstitute": 7816,
      "Ġdrooping": 7817,
      "Ġcharacter": 7818,
      "Ġsuppliant": 7819,
      "Ġinsolence": 7820,
      "Pursuivant": 7821,
      "Persuades": 7822,
      "BLUNT": 7823,
      "Breathe": 7824,
      "Children": 7825,
      "DION": 7826,
      "EARL": 7827,
      "Girl": 7828,
      "Harp": 7829,
      "Perchance": 7830,
      "Renowned": 7831,
      "Senators": 7832,
      "Souls": 7833,
      "beseeming": 7834,
      "mptory": 7835,
      "ville": 7836,
      "ĠUlysses": 7837,
      "Ġtumult": 7838,
      "Ġtreaty": 7839,
      "Ġacknowledge": 7840,
      "Ġsurname": 7841,
      "Ġsixteen": 7842,
      "Ġmoment": 7843,
      "Ġwestern": 7844,
      "Ġbustle": 7845,
      "Ġcordial": 7846,
      "Ġcuckold": 7847,
      "Ġthreefold": 7848,
      "Ġperemptory": 7849,
      "Ġpattern": 7850,
      "Ġphilosophy": 7851,
      "Ġnotwithstanding": 7852,
      "Ġforsooth": 7853,
      "ascivious": 7854,
      "Ġspecial": 7855,
      "Ġanguish": 7856,
      "ĠHercules": 7857,
      "ĠLudlow": 7858,
      "ĠLovel": 7859,
      "ĠLammas": 7860,
      "ĠBristol": 7861,
      "ĠBrandon": 7862,
      "Ġunpleasing": 7863,
      "Ġunawares": 7864,
      "ĠSixth": 7865,
      "ĠSALISBURY": 7866,
      "Ġlikelihood": 7867,
      "ĠAmazon": 7868,
      "ĠDelphos": 7869,
      "Ġadulteress": 7870,
      "Ġwrangling": 7871,
      "ĠJudas": 7872,
      "ĠJerusalem": 7873,
      "Ġapprehension": 7874,
      "Ġstrumpet": 7875,
      "Ġstratagems": 7876,
      "ĠMontgomery": 7877,
      "Ġintercession": 7878,
      "Ġobdurate": 7879,
      "ĠStafford": 7880,
      "ĠNeptune": 7881,
      "Ġwitchcraft": 7882,
      "ĠWestminster": 7883,
      "'!": 7884,
      "Aim": 7885,
      "Allow": 7886,
      "Ben": 7887,
      "Bea": 7888,
      "Bare": 7889,
      "Base": 7890,
      "Bless": 7891,
      "Bishop": 7892,
      "Boot": 7893,
      "Bushy": 7894,
      "Brief": 7895,
      "CH": 7896,
      "Ch": 7897,
      "Chan": 7898,
      "CIUS": 7899,
      "CARD": 7900,
      "Care": 7901,
      "Cull": 7902,
      "Day": 7903,
      "Dra": 7904,
      "Dry": 7905,
      "Die": 7906,
      "Dig": 7907,
      "Del": 7908,
      "Deep": 7909,
      "Drum": 7910,
      "Dorset": 7911,
      "During": 7912,
      "Doubly": 7913,
      "Er": 7914,
      "Every": 7915,
      "Earth": 7916,
      "Emb": 7917,
      "Exeter": 7918,
      "Far": 7919,
      "Fan": 7920,
      "Fri": 7921,
      "Fur": 7922,
      "Fam": 7923,
      "Fast": 7924,
      "Fare": 7925,
      "Found": 7926,
      "Gu": 7927,
      "Gra": 7928,
      "Grace": 7929,
      "Grief": 7930,
      "Hal": 7931,
      "Hover": 7932,
      "Honour": 7933,
      "Honest": 7934,
      "Helen": 7935,
      "Jul": 7936,
      "Just": 7937,
      "Jove": 7938,
      "John": 7939,
      "Kn": 7940,
      "Killing": 7941,
      "Lim": 7942,
      "Last": 7943,
      "Lau": 7944,
      "Little": 7945,
      "Learn": 7946,
      "Lift": 7947,
      "Laid": 7948,
      "Lascivious": 7949,
      "Mond": 7950,
      "Mere": 7951,
      "Meet": 7952,
      "Merc": 7953,
      "Mont": 7954,
      "Mars": 7955,
      "Music": 7956,
      "Menenius": 7957,
      "Near": 7958,
      "New": 7959,
      "Need": 7960,
      "Opp": 7961,
      "Obey": 7962,
      "Pe": 7963,
      "Po": 7964,
      "Pit": 7965,
      "Ple": 7966,
      "Pri": 7967,
      "Pra": 7968,
      "Pity": 7969,
      "Pass": 7970,
      "Pret": 7971,
      "Prick": 7972,
      "Present": 7973,
      "Qu": 7974,
      "Ra": 7975,
      "Rid": 7976,
      "Rec": 7977,
      "Ref": 7978,
      "Rise": 7979,
      "ST": 7980,
      "Sit": 7981,
      "Sed": 7982,
      "Sher": 7983,
      "Sent": 7984,
      "Sorrow": 7985,
      "Saint": 7986,
      "Ty": 7987,
      "Tre": 7988,
      "Tor": 7989,
      "Tear": 7990,
      "Tast": 7991,
      "Tend": 7992,
      "Tong": 7993,
      "Tick": 7994,
      "Tears": 7995,
      "Takes": 7996,
      "Taking": 7997,
      "TIT": 7998,
      "Tread": 7999,
      "Tribunes": 8000,
      "Us": 8001,
      "Vile": 8002,
      "VEL": 8003,
      "Went": 8004,
      "Wear": 8005,
      "Wind": 8006,
      "Wish": 8007,
      "Watch": 8008,
      "Widow": 8009,
      "York": 8010,
      "Yonder": 8011,
      "ae": 8012,
      "ah": 8013,
      "ait": 8014,
      "aus": 8015,
      "aving": 8016,
      "avy": 8017,
      "acent": 8018,
      "avest": 8019,
      "acheth": 8020,
      "br": 8021,
      "bre": 8022,
      "bri": 8023,
      "bro": 8024,
      "best": 8025,
      "bion": 8026,
      "ball": 8027,
      "book": 8028,
      "bound": 8029,
      "bew": 8030,
      "bary": 8031,
      "brows": 8032,
      "bishop": 8033,
      "boured": 8034,
      "co": 8035,
      "cat": 8036,
      "cas": 8037,
      "cond": 8038,
      "creat": 8039,
      "cold": 8040,
      "corn": 8041,
      "cause": 8042,
      "chard": 8043,
      "count": 8044,
      "court": 8045,
      "dan": 8046,
      "dam": 8047,
      "dry": 8048,
      "done": 8049,
      "dist": 8050,
      "daughter": 8051,
      "doubt": 8052,
      "dying": 8053,
      "dares": 8054,
      "dropp": 8055,
      "deliver": 8056,
      "ele": 8057,
      "ech": 8058,
      "fear": 8059,
      "fend": 8060,
      "face": 8061,
      "fix": 8062,
      "finger": 8063,
      "false": 8064,
      "front": 8065,
      "gon": 8066,
      "gher": 8067,
      "gent": 8068,
      "gling": 8069,
      "gues": 8070,
      "goose": 8071,
      "gments": 8072,
      "grand": 8073,
      "hs": 8074,
      "home": 8075,
      "hra": 8076,
      "hum": 8077,
      "hound": 8078,
      "hings": 8079,
      "hors": 8080,
      "hunt": 8081,
      "honour": 8082,
      "hrew": 8083,
      "ias": 8084,
      "iable": 8085,
      "ivers": 8086,
      "iercing": 8087,
      "journ": 8088,
      "join": 8089,
      "ky": 8090,
      "known": 8091,
      "kfulness": 8092,
      "len": 8093,
      "lest": 8094,
      "live": 8095,
      "late": 8096,
      "lings": 8097,
      "lause": 8098,
      "lars": 8099,
      "loved": 8100,
      "mor": 8101,
      "met": 8102,
      "mal": 8103,
      "make": 8104,
      "mind": 8105,
      "mak": 8106,
      "mber": 8107,
      "match": 8108,
      "mark": 8109,
      "mple": 8110,
      "mmer": 8111,
      "music": 8112,
      "mistress": 8113,
      "nit": 8114,
      "nut": 8115,
      "nard": 8116,
      "none": 8117,
      "nable": 8118,
      "never": 8119,
      "ney": 8120,
      "nothing": 8121,
      "oes": 8122,
      "oan": 8123,
      "oil": 8124,
      "ogue": 8125,
      "phe": 8126,
      "pre": 8127,
      "por": 8128,
      "pan": 8129,
      "put": 8130,
      "pill": 8131,
      "pest": 8132,
      "power": 8133,
      "press": 8134,
      "pipe": 8135,
      "present": 8136,
      "rch": 8137,
      "rine": 8138,
      "rone": 8139,
      "rong": 8140,
      "rite": 8141,
      "rors": 8142,
      "rons": 8143,
      "rates": 8144,
      "si": 8145,
      "sl": 8146,
      "sent": 8147,
      "sight": 8148,
      "since": 8149,
      "sorrow": 8150,
      "sist": 8151,
      "suck": 8152,
      "spect": 8153,
      "simple": 8154,
      "too": 8155,
      "tain": 8156,
      "test": 8157,
      "turn": 8158,
      "tide": 8159,
      "terest": 8160,
      "true": 8161,
      "tinent": 8162,
      "ux": 8163,
      "uit": 8164,
      "uing": 8165,
      "ugh": 8166,
      "uft": 8167,
      "ually": 8168,
      "uities": 8169,
      "ucing": 8170,
      "vors": 8171,
      "vict": 8172,
      "vouch": 8173,
      "voke": 8174,
      "vial": 8175,
      "was": 8176,
      "wood": 8177,
      "who": 8178,
      "worn": 8179,
      "weet": 8180,
      "wilt": 8181,
      "walk": 8182,
      "writ": 8183,
      "widow": 8184,
      "xy": 8185,
      "yet": 8186,
      "yers": 8187,
      "yally": 8188,
      "ymp": 8189,
      "zes": 8190,
      "Ġ:": 8191,
      "Ġice": 8192,
      "ĠNot": 8193,
      "ĠTheir": 8194,
      "Ġtar": 8195,
      "Ġtea": 8196,
      "Ġtie": 8197,
      "Ġtall": 8198,
      "Ġtink": 8199,
      "Ġtied": 8200,
      "Ġtab": 8201,
      "Ġtesty": 8202,
      "Ġtides": 8203,
      "Ġtires": 8204,
      "Ġtainted": 8205,
      "Ġtales": 8206,
      "Ġtables": 8207,
      "Ġteeming": 8208,
      "Ġtumbling": 8209,
      "Ġtuft": 8210,
      "heart": 8211,
      "heard": 8212,
      "heum": 8213,
      "heres": 8214,
      "hence": 8215,
      "heads": 8216,
      "hearts": 8217,
      "Ġale": 8218,
      "Ġaed": 8219,
      "Ġaqu": 8220,
      "Ġawe": 8221,
      "Ġaches": 8222,
      "Ġavouch": 8223,
      "ouches": 8224,
      "ourest": 8225,
      "Ġsow": 8226,
      "Ġsce": 8227,
      "Ġsed": 8228,
      "Ġsout": 8229,
      "Ġsong": 8230,
      "Ġsize": 8231,
      "Ġsedition": 8232,
      "Ġmot": 8233,
      "Ġming": 8234,
      "Ġmat": 8235,
      "Ġmart": 8236,
      "Ġmud": 8237,
      "Ġmates": 8238,
      "Ġmute": 8239,
      "Ġmalm": 8240,
      "Ġmatt": 8241,
      "Ġmuff": 8242,
      "Ġmature": 8243,
      "Ġmamm": 8244,
      "inter": 8245,
      "inant": 8246,
      "inite": 8247,
      "inable": 8248,
      "inary": 8249,
      "inions": 8250,
      "Ġwra": 8251,
      "Ġwield": 8252,
      "Ġwool": 8253,
      "Ġwip": 8254,
      "Ġwenches": 8255,
      "rep": 8256,
      "revere": 8257,
      "had": 8258,
      "nders": 8259,
      "Ġbard": 8260,
      "Ġbout": 8261,
      "Ġbun": 8262,
      "Ġbower": 8263,
      "Ġbull": 8264,
      "Ġbiss": 8265,
      "Ġbled": 8266,
      "Ġbash": 8267,
      "Ġbills": 8268,
      "orch": 8269,
      "orable": 8270,
      "orcester": 8271,
      "orpor": 8272,
      "isans": 8273,
      "Ġfed": 8274,
      "Ġfest": 8275,
      "Ġfant": 8276,
      "Ġfate": 8277,
      "Ġfile": 8278,
      "Ġfits": 8279,
      "Ġfift": 8280,
      "Ġfurious": 8281,
      "Ġfinest": 8282,
      "Ġfishes": 8283,
      "Ġfolks": 8284,
      "Ġfancy": 8285,
      "eral": 8286,
      "erous": 8287,
      "erry": 8288,
      "erving": 8289,
      "erman": 8290,
      "erween": 8291,
      "erbear": 8292,
      "erately": 8293,
      "erpast": 8294,
      "llist": 8295,
      "llables": 8296,
      "itan": 8297,
      "itly": 8298,
      "itche": 8299,
      "itud": 8300,
      "ittering": 8301,
      "itively": 8302,
      "itae": 8303,
      "Ġomit": 8304,
      "Ġdot": 8305,
      "Ġdow": 8306,
      "Ġdau": 8307,
      "Ġdates": 8308,
      "Ġdru": 8309,
      "Ġdump": 8310,
      "Ġdial": 8311,
      "Ġdaff": 8312,
      "Ġdiest": 8313,
      "Ġdrows": 8314,
      "Ġdarts": 8315,
      "Ġdoting": 8316,
      "Ġdoubly": 8317,
      "Ġcy": 8318,
      "Ġcen": 8319,
      "Ġcot": 8320,
      "Ġcas": 8321,
      "Ġcop": 8322,
      "Ġcitizen": 8323,
      "Ġcab": 8324,
      "Ġcured": 8325,
      "Ġcats": 8326,
      "Ġcrest": 8327,
      "Ġcures": 8328,
      "Ġcities": 8329,
      "Ġcamp": 8330,
      "Ġcurious": 8331,
      "Ġcater": 8332,
      "Ġcopy": 8333,
      "Ġcrick": 8334,
      "Ġcarters": 8335,
      "Ġcele": 8336,
      "Ġlin": 8337,
      "Ġlit": 8338,
      "Ġlun": 8339,
      "Ġlime": 8340,
      "Ġlect": 8341,
      "Ġlag": 8342,
      "Ġlump": 8343,
      "Ġlung": 8344,
      "esnes": 8345,
      "enel": 8346,
      "encounter": 8347,
      "Ġnea": 8348,
      "Ġnation": 8349,
      "Ġnuns": 8350,
      "Ġnavy": 8351,
      "Ġnymp": 8352,
      "arce": 8353,
      "arks": 8354,
      "arned": 8355,
      "Ġthra": 8356,
      "Ġthigh": 8357,
      "Ġthrew": 8358,
      "Ġthorough": 8359,
      "Ġtoy": 8360,
      "Ġtore": 8361,
      "Ġtoken": 8362,
      "Ġhook": 8363,
      "Ġhilt": 8364,
      "Ġhild": 8365,
      "Ġhugg": 8366,
      "Ġyell": 8367,
      "Ġps": 8368,
      "Ġpoo": 8369,
      "Ġpard": 8370,
      "Ġpry": 8371,
      "Ġpout": 8372,
      "Ġpate": 8373,
      "Ġpick": 8374,
      "Ġpaint": 8375,
      "Ġpile": 8376,
      "Ġpins": 8377,
      "Ġpark": 8378,
      "Ġpump": 8379,
      "Ġpip": 8380,
      "Ġpals": 8381,
      "hath": 8382,
      "hating": 8383,
      "Ġhew": 8384,
      "Ġheal": 8385,
      "Ġhewn": 8386,
      "Ġhedge": 8387,
      "Ġheated": 8388,
      "Ġhearers": 8389,
      "oted": 8390,
      "otent": 8391,
      "othes": 8392,
      "otions": 8393,
      "otpan": 8394,
      "owing": 8395,
      "omed": 8396,
      "Ġgle": 8397,
      "Ġgarl": 8398,
      "Ġgees": 8399,
      "Ġgape": 8400,
      "Ġgeld": 8401,
      "Ġgilly": 8402,
      "Ġgarter": 8403,
      "Ġghast": 8404,
      "Ġgavest": 8405,
      "ann": 8406,
      "ange": 8407,
      "anied": 8408,
      "stal": 8409,
      "stra": 8410,
      "stain": 8411,
      "stool": 8412,
      "stones": 8413,
      "stinate": 8414,
      "stances": 8415,
      "stacles": 8416,
      "strange": 8417,
      "atal": 8418,
      "seem": 8419,
      "Ġbede": 8420,
      "Ġbeards": 8421,
      "cel": 8422,
      "ceives": 8423,
      "Ġinch": 8424,
      "Ġinde": 8425,
      "Ġinex": 8426,
      "Ġinforced": 8427,
      "Ġinvention": 8428,
      "Ġinhum": 8429,
      "Ġhab": 8430,
      "Ġhal": 8431,
      "Ġhay": 8432,
      "Ġhack": 8433,
      "Ġhalt": 8434,
      "Ġhammer": 8435,
      "leven": 8436,
      "learned": 8437,
      "aynard": 8438,
      "iring": 8439,
      "uts": 8440,
      "utor": 8441,
      "utoly": 8442,
      "utiful": 8443,
      "ithmet": 8444,
      "Ġmeal": 8445,
      "Ġmeek": 8446,
      "Ġmeantime": 8447,
      "imer": 8448,
      "chion": 8449,
      "Ġnotes": 8450,
      "Ġnothings": 8451,
      "Ġforged": 8452,
      "Ġforges": 8453,
      "Ġforfend": 8454,
      "Ġissu": 8455,
      "Ġissues": 8456,
      "Ġwean": 8457,
      "oosing": 8458,
      "Ġeaster": 8459,
      "Ġebb": 8460,
      "Ġepit": 8461,
      "Ġelected": 8462,
      "adle": 8463,
      "adies": 8464,
      "adition": 8465,
      "hers": 8466,
      "rip": 8467,
      "ripp": 8468,
      "ride": 8469,
      "Ġsty": 8470,
      "Ġstake": 8471,
      "Ġstall": 8472,
      "Ġstag": 8473,
      "Ġstark": 8474,
      "Ġstair": 8475,
      "Ġstains": 8476,
      "Ġstaves": 8477,
      "Ġstony": 8478,
      "Ġstub": 8479,
      "Ġstinking": 8480,
      "ention": 8481,
      "entation": 8482,
      "Ġhiss": 8483,
      "Ġitch": 8484,
      "urre": 8485,
      "urity": 8486,
      "urance": 8487,
      "urvy": 8488,
      "urrent": 8489,
      "urope": 8490,
      "alion": 8491,
      "alty": 8492,
      "Ġreel": 8493,
      "Ġrede": 8494,
      "Ġreins": 8495,
      "Ġreek": 8496,
      "Ġrelease": 8497,
      "Ġrenew": 8498,
      "Ġliver": 8499,
      "Ġlief": 8500,
      "Ġliking": 8501,
      "INAL": 8502,
      "rav": 8503,
      "raign": 8504,
      "ramed": 8505,
      "raining": 8506,
      "Ġdeity": 8507,
      "Ġdecease": 8508,
      "idels": 8509,
      "lymp": 8510,
      "ashing": 8511,
      "Ġsoar": 8512,
      "Ġsoever": 8513,
      "Ġsoothe": 8514,
      "Ġsoothing": 8515,
      "Ġasunder": 8516,
      "Ġassemble": 8517,
      "Ġassembly": 8518,
      "oody": 8519,
      "rove": 8520,
      "roying": 8521,
      "rogative": 8522,
      "aining": 8523,
      "Ġshamed": 8524,
      "Ġshaped": 8525,
      "ample": 8526,
      "amorous": 8527,
      "estim": 8528,
      "Ġnoisome": 8529,
      "eaf": 8530,
      "eap": 8531,
      "user": 8532,
      "using": 8533,
      "usan": 8534,
      "Ġwillow": 8535,
      "Ġdoings": 8536,
      "ĠRather": 8537,
      "ĠRedeem": 8538,
      "Thither": 8539,
      "Threw": 8540,
      "Thomas": 8541,
      "Ġsex": 8542,
      "Ġseque": 8543,
      "Ġsevere": 8544,
      "Ġsemb": 8545,
      "Ġsevent": 8546,
      "Ġseals": 8547,
      "Told": 8548,
      "Ġlogs": 8549,
      "Ġlolling": 8550,
      "ifs": 8551,
      "ifter": 8552,
      "ifies": 8553,
      "geon": 8554,
      "geal": 8555,
      "arting": 8556,
      "Ġally": 8557,
      "Ġallay": 8558,
      "Ġsuret": 8559,
      "ĠCy": 8560,
      "ĠCat": 8561,
      "ĠCousin": 8562,
      "ĠCarlisle": 8563,
      "earing": 8564,
      "ERKE": 8565,
      "hankfulness": 8566,
      "Ġsped": 8567,
      "Ġspell": 8568,
      "Ġspray": 8569,
      "Ġspru": 8570,
      "Ġspright": 8571,
      "Ġsprit": 8572,
      "Ġspacious": 8573,
      "Ġsprang": 8574,
      "Ġsparks": 8575,
      "ĠEre": 8576,
      "ĠEthi": 8577,
      "ĠExton": 8578,
      "ĠEurope": 8579,
      "Ġant": 8580,
      "Ġansw": 8581,
      "tern": 8582,
      "iless": 8583,
      "ilities": 8584,
      "Ġnecks": 8585,
      "Ġnephe": 8586,
      "Ġvig": 8587,
      "Ġvap": 8588,
      "Ġvices": 8589,
      "Ġvaunt": 8590,
      "Ġvio": 8591,
      "Ġvouchsafe": 8592,
      "Ġvizard": 8593,
      "Ġvitae": 8594,
      "thing": 8595,
      "thri": 8596,
      "ĠMort": 8597,
      "ĠMamill": 8598,
      "aths": 8599,
      "athy": 8600,
      "athom": 8601,
      "ntly": 8602,
      "Ġshin": 8603,
      "Ġshrew": 8604,
      "Ġshining": 8605,
      "ici": 8606,
      "usty": 8607,
      "astic": 8608,
      "Ġwhate": 8609,
      "Ġupholds": 8610,
      "Ġblue": 8611,
      "Ġblister": 8612,
      "Ġblots": 8613,
      "Ġblocks": 8614,
      "Ġblank": 8615,
      "Ġblanks": 8616,
      "anting": 8617,
      "Ġwheres": 8618,
      "Ġwheels": 8619,
      "odes": 8620,
      "odils": 8621,
      "Ġknell": 8622,
      "oln": 8623,
      "olour": 8624,
      "olate": 8625,
      "olog": 8626,
      "areth": 8627,
      "Ġmanors": 8628,
      "Ġmansion": 8629,
      "Ġmanacles": 8630,
      "Ġmanifest": 8631,
      "Ġpror": 8632,
      "Ġprint": 8633,
      "Ġpratest": 8634,
      "Ġprank": 8635,
      "ĠGall": 8636,
      "ĠGlou": 8637,
      "Ġconst": 8638,
      "Ġconque": 8639,
      "Ġconvenient": 8640,
      "outham": 8641,
      "ĠHoo": 8642,
      "ĠHad": 8643,
      "ĠHas": 8644,
      "ĠHear": 8645,
      "ĠHouse": 8646,
      "ĠHang": 8647,
      "ĠHugh": 8648,
      "Fors": 8649,
      "Force": 8650,
      "Forced": 8651,
      "vener": 8652,
      "venged": 8653,
      "ĠLy": 8654,
      "ivered": 8655,
      "Ġhates": 8656,
      "Ġhatch": 8657,
      "Ġhatches": 8658,
      "Ġcanon": 8659,
      "Ġcancell": 8660,
      "ĠOr": 8661,
      "ĠOnce": 8662,
      "ĠOlymp": 8663,
      "Ġamend": 8664,
      "Ġamiss": 8665,
      "ondam": 8666,
      "emb": 8667,
      "Ġlovelier": 8668,
      "Ġswan": 8669,
      "Ġswim": 8670,
      "Ġswore": 8671,
      "Ġswine": 8672,
      "Ġswarm": 8673,
      "Ġswifter": 8674,
      "Ġusest": 8675,
      "Ġusage": 8676,
      "Ġusurps": 8677,
      "Ġthereon": 8678,
      "umn": 8679,
      "uming": 8680,
      "umps": 8681,
      "ummon": 8682,
      "umny": 8683,
      "Ġarrest": 8684,
      "Ġargued": 8685,
      "ieving": 8686,
      "ĠBr": 8687,
      "ĠBes": 8688,
      "ĠBest": 8689,
      "ĠBaynard": 8690,
      "ĠBERKE": 8691,
      "Ġunv": 8692,
      "Ġunres": 8693,
      "Ġunqu": 8694,
      "Ġunity": 8695,
      "Ġunman": 8696,
      "Ġunfort": 8697,
      "Ġunpo": 8698,
      "Ġunking": 8699,
      "Ġunsc": 8700,
      "Ġunadvised": 8701,
      "Ġunspeak": 8702,
      "Ġunreason": 8703,
      "Ġunsettled": 8704,
      "Ġunthri": 8705,
      "Ġheretic": 8706,
      "ĠShe": 8707,
      "ĠSon": 8708,
      "ĠSuff": 8709,
      "ĠSweet": 8710,
      "ĠSusan": 8711,
      "ĠSoutham": 8712,
      "pping": 8713,
      "resseth": 8714,
      "quent": 8715,
      "qual": 8716,
      "quers": 8717,
      "quaint": 8718,
      "Ġorb": 8719,
      "Ġorators": 8720,
      "Ġorisons": 8721,
      "Ġoratory": 8722,
      "Ġorchard": 8723,
      "Ġorange": 8724,
      "Ġbrood": 8725,
      "Ġbrats": 8726,
      "Ġrat": 8727,
      "Ġrite": 8728,
      "Ġrats": 8729,
      "Ġrounds": 8730,
      "Ġrhyme": 8731,
      "Ġrheum": 8732,
      "Ġletting": 8733,
      "alled": 8734,
      "igm": 8735,
      "igate": 8736,
      "igree": 8737,
      "igation": 8738,
      "ĠWith": 8739,
      "ĠWood": 8740,
      "ĠWorcester": 8741,
      "Ġgraver": 8742,
      "ĠYe": 8743,
      "ĠYes": 8744,
      "Ġsheet": 8745,
      "Ġsheets": 8746,
      "LOVEL": 8747,
      "cio": 8748,
      "cible": 8749,
      "cipl": 8750,
      "orts": 8751,
      "ortive": 8752,
      "ortham": 8753,
      "Whence": 8754,
      "Ascend": 8755,
      "uncle": 8756,
      "Ġjar": 8757,
      "Ġjump": 8758,
      "Ġjaunt": 8759,
      "reation": 8760,
      "inkle": 8761,
      "ops": 8762,
      "open": 8763,
      "opsa": 8764,
      "Ġencl": 8765,
      "Ġensue": 8766,
      "Ġenroll": 8767,
      "Ġenforced": 8768,
      "Ġenviron": 8769,
      "Ġensuing": 8770,
      "Ġmadest": 8771,
      "Ġmadman": 8772,
      "Ġmadmen": 8773,
      "Ġplent": 8774,
      "Ġplight": 8775,
      "Ġplough": 8776,
      "Ġplots": 8777,
      "Ġplagues": 8778,
      "AUGH": 8779,
      "Ġdisb": 8780,
      "Ġdispose": 8781,
      "Ġdislike": 8782,
      "Ġdisgu": 8783,
      "Ġdissemble": 8784,
      "Ġdispleased": 8785,
      "Ġdiscipl": 8786,
      "Ġbloods": 8787,
      "Ġoutst": 8788,
      "Ġhandle": 8789,
      "Held": 8790,
      "Ġprog": 8791,
      "Ġproves": 8792,
      "Ġprolong": 8793,
      "Ġprocure": 8794,
      "Ġproduce": 8795,
      "feits": 8796,
      "harm": 8797,
      "harp": 8798,
      "Ġpoll": 8799,
      "Ġpoets": 8800,
      "Inf": 8801,
      "Inter": 8802,
      "Incl": 8803,
      "Inquire": 8804,
      "Ġsomebod": 8805,
      "Ġwhoso": 8806,
      "irer": 8807,
      "Ġheaps": 8808,
      "ignation": 8809,
      "Ġfoem": 8810,
      "Ġfoaming": 8811,
      "Oft": 8812,
      "aging": 8813,
      "agion": 8814,
      "agab": 8815,
      "agued": 8816,
      "pton": 8817,
      "pture": 8818,
      "ĠPet": 8819,
      "ĠPeace": 8820,
      "ĠPoor": 8821,
      "ĠPotpan": 8822,
      "Ġrod": 8823,
      "Ġroad": 8824,
      "Ġroared": 8825,
      "Ġroyally": 8826,
      "many": 8827,
      "Ġeyed": 8828,
      "eeting": 8829,
      "Ġmarches": 8830,
      "Ġflour": 8831,
      "Ġflout": 8832,
      "Ġslack": 8833,
      "Ġslumber": 8834,
      "Ġslug": 8835,
      "Ġslanders": 8836,
      "Ġslavish": 8837,
      "Ġexcels": 8838,
      "Ġexample": 8839,
      "Ġwary": 8840,
      "Ġwarning": 8841,
      "Ġlooker": 8842,
      "Ġfearless": 8843,
      "Ġmenace": 8844,
      "aved": 8845,
      "avel": 8846,
      "Ġabst": 8847,
      "Ġabound": 8848,
      "Ġabortive": 8849,
      "Howe": 8850,
      "Weep": 8851,
      "Ġrice": 8852,
      "Ġribs": 8853,
      "Ġriches": 8854,
      "Ġribb": 8855,
      "Ġripest": 8856,
      "Ġcouched": 8857,
      "ighs": 8858,
      "ighbours": 8859,
      "Ġqual": 8860,
      "Ġquake": 8861,
      "Ġquondam": 8862,
      "Ġarticle": 8863,
      "Ġartific": 8864,
      "Wherefore": 8865,
      "Whereby": 8866,
      "ĠAg": 8867,
      "ĠAt": 8868,
      "ĠAbra": 8869,
      "ĠArch": 8870,
      "ĠAutoly": 8871,
      "Ġpartial": 8872,
      "Ġpartisans": 8873,
      "Been": 8874,
      "Behind": 8875,
      "aples": 8876,
      "apable": 8877,
      "apert": 8878,
      "ĠTiber": 8879,
      "bery": 8880,
      "berries": 8881,
      "ĠDick": 8882,
      "ĠDown": 8883,
      "ĠDece": 8884,
      "ĠDukes": 8885,
      "ĠDighton": 8886,
      "death": 8887,
      "Ġstanders": 8888,
      "Ġstandards": 8889,
      "Whoever": 8890,
      "Ġhonourably": 8891,
      "Ġbetake": 8892,
      "Ġtwin": 8893,
      "Ġtwist": 8894,
      "Ġtwos": 8895,
      "Ġclout": 8896,
      "Ġcloth": 8897,
      "Ġclime": 8898,
      "Ġcloy": 8899,
      "Ġclip": 8900,
      "Ġclubs": 8901,
      "Ġclusters": 8902,
      "Ġclothes": 8903,
      "Ġclamorous": 8904,
      "gery": 8905,
      "Yourself": 8906,
      "ccess": 8907,
      "reech": 8908,
      "Ġpredom": 8909,
      "Ġprecip": 8910,
      "Ġprepost": 8911,
      "Ġpreparation": 8912,
      "Ġprerogative": 8913,
      "ĠMark": 8914,
      "ĠMarquis": 8915,
      "Ġraw": 8916,
      "Ġrack": 8917,
      "Ġraged": 8918,
      "Ġrags": 8919,
      "Ġraging": 8920,
      "Ġraze": 8921,
      "Ġscra": 8922,
      "Ġscore": 8923,
      "Ġscare": 8924,
      "Ġscru": 8925,
      "Ġscathe": 8926,
      "assad": 8927,
      "Ġheadlong": 8928,
      "Ġunthankfulness": 8929,
      "Ġcalling": 8930,
      "Ġadmitted": 8931,
      "Ġadvocate": 8932,
      "Ġserving": 8933,
      "Ġeyesight": 8934,
      "Ġmoons": 8935,
      "Therein": 8936,
      "Thereof": 8937,
      "Ġpeep": 8938,
      "ĠJames": 8939,
      "pery": 8940,
      "peror": 8941,
      "perly": 8942,
      "peration": 8943,
      "perform": 8944,
      "oused": 8945,
      "Ġconsist": 8946,
      "Ġconsents": 8947,
      "Ġconsume": 8948,
      "Ġconspire": 8949,
      "Ġconsidered": 8950,
      "Ġchildhood": 8951,
      "ĠFear": 8952,
      "ĠFitzwater": 8953,
      "Ġkey": 8954,
      "Ġperused": 8955,
      "Ġpertinent": 8956,
      "Ġperceives": 8957,
      "Ġbegs": 8958,
      "Ġbegot": 8959,
      "Ġearls": 8960,
      "Ġrepaid": 8961,
      "Ġrepeat": 8962,
      "Ġreprehend": 8963,
      "Ġreplied": 8964,
      "Ġreproof": 8965,
      "Ġreplen": 8966,
      "ĠYorkshire": 8967,
      "meant": 8968,
      "Ġgrin": 8969,
      "Ġgrud": 8970,
      "Ġgripe": 8971,
      "Ġprays": 8972,
      "Ġpraying": 8973,
      "Ġintended": 8974,
      "ercharged": 8975,
      "ossed": 8976,
      "Ġtribe": 8977,
      "Ġtrivial": 8978,
      "Ġsetter": 8979,
      "Ġsettled": 8980,
      "Ġlabours": 8981,
      "Ġlaboured": 8982,
      "Ġresting": 8983,
      "Ġresteth": 8984,
      "Ġrestored": 8985,
      "ĠCitizens": 8986,
      "Ġapply": 8987,
      "Ġappeach": 8988,
      "Ġappoint": 8989,
      "Ġapplause": 8990,
      "Ġharms": 8991,
      "iously": 8992,
      "swoln": 8993,
      "orship": 8994,
      "Ġlevied": 8995,
      "attery": 8996,
      "Ġcontend": 8997,
      "Ġcontains": 8998,
      "Ġcontents": 8999,
      "Ġcontrived": 9000,
      "Ġcontagion": 9001,
      "Ġhoping": 9002,
      "Ġhourly": 9003,
      "intellig": 9004,
      "Ġhighly": 9005,
      "Ġguile": 9006,
      "RIST": 9007,
      "thest": 9008,
      "Ġtrack": 9009,
      "Ġtrained": 9010,
      "Ġtravel": 9011,
      "Ġtrample": 9012,
      "Ġmightily": 9013,
      "aled": 9014,
      "ĠMARCIUS": 9015,
      "Ġtreads": 9016,
      "Ġendow": 9017,
      "Ġendless": 9018,
      "Ġenters": 9019,
      "Ġentire": 9020,
      "Ġentail": 9021,
      "cloth": 9022,
      "Ġprig": 9023,
      "Ġpricks": 9024,
      "Ġkeeping": 9025,
      "Ġsmear": 9026,
      "Ġsmock": 9027,
      "Ġsmoke": 9028,
      "Ġsmelt": 9029,
      "Ġresidence": 9030,
      "Ġreserved": 9031,
      "chest": 9032,
      "chess": 9033,
      "udence": 9034,
      "Ġdregs": 9035,
      "Ġglo": 9036,
      "Ġglove": 9037,
      "Ġglittering": 9038,
      "Ġcompet": 9039,
      "Ġcompell": 9040,
      "Ġcomplet": 9041,
      "Ġcomposition": 9042,
      "Ġcompounded": 9043,
      "Ġrighteous": 9044,
      "abs": 9045,
      "ablish": 9046,
      "abouts": 9047,
      "fty": 9048,
      "Ġpurg": 9049,
      "Ġpurity": 9050,
      "Ġpursue": 9051,
      "Ġpursues": 9052,
      "Ġpurblind": 9053,
      "Ġsubs": 9054,
      "Ġsubmit": 9055,
      "Ġaccent": 9056,
      "Ġaccents": 9057,
      "Ġaccustom": 9058,
      "Ġchest": 9059,
      "Ġcheat": 9060,
      "Ġhandsome": 9061,
      "Ġbrake": 9062,
      "Ġbraving": 9063,
      "Ġbrass": 9064,
      "Ġfollowing": 9065,
      "Ġfollowed": 9066,
      "Ġkilling": 9067,
      "Ġtwofold": 9068,
      "iolable": 9069,
      "Ġmisled": 9070,
      "Ġmisbe": 9071,
      "Ġmisdeed": 9072,
      "Ġmiscar": 9073,
      "Ġmisadventure": 9074,
      "Ġmisdoubt": 9075,
      "Ġcog": 9076,
      "Ġcoats": 9077,
      "Ġcovet": 9078,
      "lty": 9079,
      "Ġbodes": 9080,
      "Ġkindle": 9081,
      "Ġlastly": 9082,
      "Ġlightness": 9083,
      "Ġlightens": 9084,
      "Ġconfer": 9085,
      "Ġconfined": 9086,
      "Ġconfident": 9087,
      "Ġconflict": 9088,
      "two": 9089,
      "twenty": 9090,
      "Ġhappen": 9091,
      "Ġhappily": 9092,
      "Ġstately": 9093,
      "Ġhelping": 9094,
      "Ġfinding": 9095,
      "Ġcharter": 9096,
      "Ġcharms": 9097,
      "Ġcharitable": 9098,
      "Shed": 9099,
      "Ġshowing": 9100,
      "Ġchanges": 9101,
      "Ġchanging": 9102,
      "Ġchants": 9103,
      "Ġchannel": 9104,
      "Ġlessen": 9105,
      "Ġpasses": 9106,
      "Ġpassages": 9107,
      "Ġpassado": 9108,
      "Ġstreet": 9109,
      "Ġstreams": 9110,
      "Ġstreaks": 9111,
      "Ġnativity": 9112,
      "Ġshameful": 9113,
      "Ġsunset": 9114,
      "Unc": 9115,
      "Unw": 9116,
      "Unsheathe": 9117,
      "Ġfallen": 9118,
      "beit": 9119,
      "beat": 9120,
      "beards": 9121,
      "Ġcareer": 9122,
      "Ġhush": 9123,
      "Ġbug": 9124,
      "Ġrevenues": 9125,
      "Ġeyebrows": 9126,
      "Ġimpute": 9127,
      "Ġimposition": 9128,
      "Ġimpreg": 9129,
      "ildly": 9130,
      "Ġbeseeming": 9131,
      "Ġbesiege": 9132,
      "Ġbeshrew": 9133,
      "Ġfalter": 9134,
      "Ġfalchion": 9135,
      "Ġpatron": 9136,
      "Ġhusbands": 9137,
      "Ġbribe": 9138,
      "Ġdevout": 9139,
      "Ġdevice": 9140,
      "Ġdevised": 9141,
      "Ġdevoted": 9142,
      "Ġpardoning": 9143,
      "Ġseemeth": 9144,
      "ival": 9145,
      "ivest": 9146,
      "Ġdrinks": 9147,
      "Ġproudly": 9148,
      "Ġwrongfully": 9149,
      "Doing": 9150,
      "Dogs": 9151,
      "Ġwantons": 9152,
      "Ġbringing": 9153,
      "Ġlawyers": 9154,
      "Ġoverta": 9155,
      "Ġoverboard": 9156,
      "Ġdoubtless": 9157,
      "Ġchap": 9158,
      "Ġchaff": 9159,
      "Ġchaos": 9160,
      "Ġhumours": 9161,
      "Ġhumorous": 9162,
      "Ġretail": 9163,
      "ictment": 9164,
      "Answer": 9165,
      "Anointed": 9166,
      "Short": 9167,
      "dding": 9168,
      "Ġtalking": 9169,
      "Ġtalked": 9170,
      "Ġdrain": 9171,
      "versy": 9172,
      "Ġrubs": 9173,
      "Ġrubb": 9174,
      "peer": 9175,
      "Ġevening": 9176,
      "Ġstriving": 9177,
      "Ġstrict": 9178,
      "Ġstripes": 9179,
      "Ġattach": 9180,
      "rants": 9181,
      "Ġfoolery": 9182,
      "Ġhitherward": 9183,
      "Ġdefaced": 9184,
      "Ġproveth": 9185,
      "Ġmista": 9186,
      "Ġmistook": 9187,
      "Ġchin": 9188,
      "Ġchron": 9189,
      "Ġchoosing": 9190,
      "Ġjustly": 9191,
      "Ġjustices": 9192,
      "Ġsounding": 9193,
      "Almost": 9194,
      "plain": 9195,
      "plant": 9196,
      "Ġwinding": 9197,
      "Ġsenses": 9198,
      "Ġinfinite": 9199,
      "Ġinfidels": 9200,
      "Ġstrains": 9201,
      "Ġstraitly": 9202,
      "unto": 9203,
      "Ġsecurity": 9204,
      "Ġcourtship": 9205,
      "Ġdenial": 9206,
      "Ġnursed": 9207,
      "Ġbelong": 9208,
      "Ġplays": 9209,
      "Ġplayfellow": 9210,
      "Ġdiscours": 9211,
      "Ġdiscern": 9212,
      "Ġdiscreet": 9213,
      "Ġservitor": 9214,
      "Ġmerciless": 9215,
      "Ġbats": 9216,
      "Ġflying": 9217,
      "Ġunderstood": 9218,
      "Ġrecount": 9219,
      "Ġrecreation": 9220,
      "Ġsitting": 9221,
      "Ġdeeply": 9222,
      "Ġcrutches": 9223,
      "Ġcradle": 9224,
      "Ġcrab": 9225,
      "Ġcram": 9226,
      "Ġswearing": 9227,
      "Ġbusied": 9228,
      "Ġfouler": 9229,
      "Ġcurst": 9230,
      "Ġcurbs": 9231,
      "Ġcursing": 9232,
      "Ġcrystal": 9233,
      "Ġhorseman": 9234,
      "Ġgreed": 9235,
      "Ġcommandment": 9236,
      "Spur": 9237,
      "Spoke": 9238,
      "Spread": 9239,
      "Twenty": 9240,
      "Twixt": 9241,
      "Ġtemperate": 9242,
      "Ġpromotions": 9243,
      "Wash": 9244,
      "Ġforemost": 9245,
      "Ġforewar": 9246,
      "Ġforego": 9247,
      "Ġfields": 9248,
      "Ġbeaver": 9249,
      "ĠCapel": 9250,
      "Ġawful": 9251,
      "Ġawaking": 9252,
      "Ġdepth": 9253,
      "Ġdepends": 9254,
      "Ġdeposing": 9255,
      "Ġgrants": 9256,
      "White": 9257,
      "Ġsilken": 9258,
      "Ġfurthest": 9259,
      "Ġpastime": 9260,
      "awful": 9261,
      "awdry": 9262,
      "noble": 9263,
      "Ġbolder": 9264,
      "herds": 9265,
      "Ġtribes": 9266,
      "Compare": 9267,
      "Cominius": 9268,
      "Herald": 9269,
      "Hermione": 9270,
      "sub": 9271,
      "sures": 9272,
      "suffic": 9273,
      "Ġmete": 9274,
      "Ġcauser": 9275,
      "Ġcolder": 9276,
      "Ġcoldly": 9277,
      "Ġnearness": 9278,
[...]
